{"version":"1.0","truncation":null,"padding":null,"added_tokens":[{"id":0,"special":true,"content":"<cls>","single_word":false,"lstrip":false,"rstrip":false,"normalized":false},{"id":1,"special":true,"content":"<pad>","single_word":false,"lstrip":false,"rstrip":false,"normalized":false},{"id":2,"special":true,"content":"<sep>","single_word":false,"lstrip":false,"rstrip":false,"normalized":false},{"id":3,"special":true,"content":"<unk>","single_word":false,"lstrip":false,"rstrip":false,"normalized":false},{"id":4,"special":true,"content":"<mask>","single_word":false,"lstrip":false,"rstrip":false,"normalized":false}],"normalizer":null,"pre_tokenizer":{"type":"ByteLevel","add_prefix_space":false,"trim_offsets":true},"post_processor":{"type":"ByteLevel","add_prefix_space":true,"trim_offsets":false},"decoder":{"type":"ByteLevel","add_prefix_space":true,"trim_offsets":true},"model":{"type":"BPE","dropout":null,"unk_token":null,"continuing_subword_prefix":null,"end_of_word_suffix":null,"fuse_unk":false,"vocab":{"<cls>":0,"<pad>":1,"<sep>":2,"<unk>":3,"<mask>":4,"!":5,"\"":6,"#":7,"$":8,"%":9,"&":10,"'":11,"(":12,")":13,"*":14,"+":15,",":16,"-":17,".":18,"/":19,"0":20,"1":21,"2":22,"3":23,"4":24,"5":25,"6":26,"7":27,"8":28,"9":29,":":30,";":31,"<":32,"=":33,">":34,"?":35,"@":36,"A":37,"B":38,"C":39,"D":40,"E":41,"F":42,"G":43,"H":44,"I":45,"J":46,"K":47,"L":48,"M":49,"N":50,"O":51,"P":52,"Q":53,"R":54,"S":55,"T":56,"U":57,"V":58,"W":59,"X":60,"Y":61,"Z":62,"[":63,"\\":64,"]":65,"^":66,"_":67,"`":68,"a":69,"b":70,"c":71,"d":72,"e":73,"f":74,"g":75,"h":76,"i":77,"j":78,"k":79,"l":80,"m":81,"n":82,"o":83,"p":84,"q":85,"r":86,"s":87,"t":88,"u":89,"v":90,"w":91,"x":92,"y":93,"z":94,"{":95,"|":96,"}":97,"~":98,"¡":99,"¢":100,"£":101,"¤":102,"¥":103,"¦":104,"§":105,"¨":106,"©":107,"ª":108,"«":109,"¬":110,"®":111,"¯":112,"°":113,"±":114,"²":115,"³":116,"´":117,"µ":118,"¶":119,"·":120,"¸":121,"¹":122,"º":123,"»":124,"¼":125,"½":126,"¾":127,"¿":128,"À":129,"Á":130,"Â":131,"Ã":132,"Ä":133,"Å":134,"Æ":135,"Ç":136,"È":137,"É":138,"Ê":139,"Ë":140,"Ì":141,"Í":142,"Î":143,"Ï":144,"Ð":145,"Ñ":146,"Ò":147,"Ó":148,"Ô":149,"Õ":150,"Ö":151,"×":152,"Ø":153,"Ù":154,"Ú":155,"Û":156,"Ü":157,"Ý":158,"Þ":159,"ß":160,"à":161,"á":162,"â":163,"ã":164,"ä":165,"å":166,"æ":167,"ç":168,"è":169,"é":170,"ê":171,"ë":172,"ì":173,"í":174,"î":175,"ï":176,"ð":177,"ñ":178,"ò":179,"ó":180,"ô":181,"õ":182,"ö":183,"÷":184,"ø":185,"ù":186,"ú":187,"û":188,"ü":189,"ý":190,"þ":191,"ÿ":192,"Ā":193,"ā":194,"Ă":195,"ă":196,"Ą":197,"ą":198,"Ć":199,"ć":200,"Ĉ":201,"ĉ":202,"Ċ":203,"ċ":204,"Č":205,"č":206,"Ď":207,"ď":208,"Đ":209,"đ":210,"Ē":211,"ē":212,"Ĕ":213,"ĕ":214,"Ė":215,"ė":216,"Ę":217,"ę":218,"Ě":219,"ě":220,"Ĝ":221,"ĝ":222,"Ğ":223,"ğ":224,"Ġ":225,"ġ":226,"Ģ":227,"ģ":228,"Ĥ":229,"ĥ":230,"Ħ":231,"ħ":232,"Ĩ":233,"ĩ":234,"Ī":235,"ī":236,"Ĭ":237,"ĭ":238,"Į":239,"į":240,"İ":241,"ı":242,"Ĳ":243,"ĳ":244,"Ĵ":245,"ĵ":246,"Ķ":247,"ķ":248,"ĸ":249,"Ĺ":250,"ĺ":251,"Ļ":252,"ļ":253,"Ľ":254,"ľ":255,"Ŀ":256,"ŀ":257,"Ł":258,"ł":259,"Ń":260,"Ġt":261,"he":262,"Ġa":263,"in":264,"Ġthe":265,"er":266,"on":267,"Ġ,":268,"re":269,"Ġs":270,"Ġo":271,"Ġw":272,"ed":273,"un":274,"Ġ.":275,"at":276,"nd":277,"or":278,"Ġc":279,"it":280,"Ġf":281,"en":282,"is":283,"Ġof":284,"es":285,"Ġb":286,"Ġin":287,"ar":288,"unk":289,"an":290,"Ġ<":291,"al":292,"Ġand":293,"Ġp":294,"ing":295,"as":296,"Ġto":297,"Ġm":298,"ro":299,"ic":300,"Ġd":301,"Ġh":302,"ĠĊ":303,"ion":304,"le":305,"ĠT":306,"Ġ=":307,"Ġre":308,"Ġ\"":309,"Ġth":310,"ent":311,"ou":312,"ĠA":313,"Ġ1":314,"il":315,"ĠS":316,"st":317,"Ġl":318,"om":319,"Ġe":320,"Ġn":321,"Ġ@":322,"am":323,"ĠC":324,"el":325,"ad":326,"Ġwas":327,"ac":328,"ĠThe":329,"Ġon":330,"Ġbe":331,"ur":332,"ly":333,"ĠM":334,"Ġ'":335,"ĠI":336,"Ġg":337,"Ġfor":338,"iv":339,"ol":340,"ter":341,"ĠB":342,"-@":343,"Ġ@-@":344,"im":345,"id":346,"ir":347,"Ġas":348,"ct":349,"ig":350,"th":351,"ow":352,"ith":353,"Ġst":354,"ĠH":355,"us":356,"Ġ2":357,"ay":358,"Ġthat":359,"Ġwith":360,"her":361,"ot":362,"ce":363,"ver":364,"ut":365,"ation":366,"et":367,"Ġis":368,"ĠP":369,"Ġwh":370,"ch":371,"Ġby":372,"ĠR":373,"Ġ)":374,"Ġ(":375,"Ġal":376,"ĠF":377,"ĠD":378,"Ġcon":379,"em":380,"ul":381,"ĠW":382,"Ġat":383,"Ġit":384,"Ġ19":385,"and":386,"ain":387,"rom":388,"os":389,"ĠN":390,"Ġan":391,"ĠG":392,"ĠL":393,"ers":394,"Ġhe":395,"est":396,"ag":397,"av":398,"00":399,"ĠJ":400,"Ġse":401,"um":402,"Ġde":403,"Ġhis":404,"Ġr":405,"Ġfrom":406,"od":407,"ĠO":408,"ri":409,"Ġcom":410,"ĠE":411,"pe":412,"und":413,"ist":414,"Ġpro":415,"if":416,"ld":417,"ies":418,"ere":419,"ort":420,"Ġv":421,"res":422,"Ġsu":423,"ore":424,"Ġwere":425,"ill":426,"ĠIn":427,"ap":428,"ong":429,"ew":430,"op":431,"igh":432,"ich":433,"Ġor":434,"ate":435,"art":436,"all":437,"ard":438,"ak":439,"Ġch":440,"ber":441,"ame":442,"Ġex":443,"gh":444,"ab":445,"ud":446,"Ġpl":447,"se":448,"ated":449,"ant":450,"ity":451,"Ġare":452,"Ġâ":453,"oc":454,"ive":455,"ess":456,"qu":457,"Ġsh":458,"ĠâĢ":459,"Ġhad":460,"Ġk":461,"ack":462,"Ġwhich":463,"up":464,"ĠU":465,"red":466,"Ġy":467,"ĠK":468,"Ġle":469,"ov":470,"our":471,"Ġnot":472,"ment":473,"ast":474,"ip":475,"ĠSt":476,"rit":477,"ord":478,"ear":479,"pt":480,"Ġtr":481,"ge":482,"ally":483,"ian":484,"ther":485,"ost":486,"ine":487,"ave":488,"ight":489,"oun":490,"ell":491,"Ġ3":492,"ish":493,"cl":494,"ary":495,"ĠCh":496,"Ġ200":497,"ust":498,"irst":499,"ia":500,"Ġ;":501,"pp":502,"te":503,"Ġcomp":504,"Ġtheir":505,"Ġbut":506,"cc":507,"so":508,"ction":509,"fter":510,"Ġfirst":511,"ous":512,"ure":513,"Ġits":514,"ould":515,"ra":516,"ĠâĢĵ":517,"ide":518,"Ġwhe":519,"Ġcont":520,"Ġar":521,"ue":522,"ical":523,"ome":524,"Ġun":525,"wo":526,"og":527,"hed":528,"Ġ20":529,"Ġ:":530,"ial":531,"ub":532,"ie":533,"Ġher":534,"Ġalso":535,"ition":536,"Ġro":537,"Ġint":538,"ĠV":539,"own":540,"Ġcl":541,"ater":542,"out":543,"ign":544,"Ġus":545,"orm":546,"ork":547,"Ġab":548,"Ġad":549,"ok":550,"ff":551,"per":552,"Ġhave":553,"age":554,"ru":555,"ire":556,"ĠHe":557,"Ġone":558,"ass":559,"Ġhas":560,"Ġrec":561,"low":562,"mer":563,"ime":564,"Ġbeen":565,"Ġtwo":566,"Ġ4":567,"du":568,"Ġres":569,"ĠTh":570,"Ġ18":571,".@":572,"Ġ@.@":573,"Ġper":574,"ond":575,"Ġ5":576,"ree":577,"Ġbo":578,"Ġwho":579,"ence":580,"uring":581,"ough":582,"land":583,"ted":584,"Ġthis":585,"are":586,"Ġbec":587,"ile":588,"ry":589,"pl":590,"ory":591,"ance":592,"ugh":593,"ect":594,"ĠIt":595,"ans":596,"Ġsc":597,"Ġplay":598,"ĠAl":599,"Ġthey":600,"clud":601,"Ġyear":602,"Ġ201":603,"Ġpart":604,"Ġag":605,"ade":606,"Ġdes":607,"ations":608,"Ġman":609,"ric":610,"Ġother":611,"Ġdis":612,"ult":613,"Ġte":614,"ely":615,"Ġafter":616,"ach":617,"Ġj":618,"Ġser":619,"Ġover":620,"over":621,"Ġoff":622,"Ġup":623,",@":624,"Ġ@,@":625,"ang":626,"Ġinclud":627,"Ġsp":628,"ions":629,"Ġen":630,"ite":631,"urn":632,"act":633,"ound":634,"ount":635,"Ġim":636,"ace":637,"ice":638,"iz":639,"ib":640,"wn":641,"Ġout":642,"ke":643,"ress":644,"ĠY":645,"ark":646,"Ġtime":647,"Ġne":648,"Ġinto":649,"Ġfin":650,"Ġpre":651,"Ġev":652,"ced":653,"port":654,"we":655,"ĠOn":656,"Ġspe":657,"ces":658,"Ġwould":659,"Ġmore":660,"Ġshe":661,"Ġcomm":662,"ason":663,"Ġatt":664,"ward":665,"rough":666,"Ġall":667,"ren":668,"ose":669,"one":670,"ail":671,"ited":672,"Ġhim":673,"amp":674,"Ġwe":675,"tern":676,"ied":677,"ens":678,"oin":679,"ased":680,"Ġ6":681,"ĠUn":682,"Ġcent":683,"rib":684,"ĠRe":685,"Ġwork":686,"ents":687,"ild":688,"ĠSe":689,"ix":690,"Ġme":691,"ood":692,"ase":693,"les":694,"ings":695,"ts":696,"man":697,"round":698,"Ġ7":699,"Ġfe":700,"Ġthem":701,"able":702,"ious":703,"Ġwhen":704,"Ġbet":705,"Ġsong":706,"ake":707,"ors":708,"Ġsec":709,"ates":710,"als":711,"vel":712,"ubl":713,"Ġear":714,"Ġrem":715,"ĠAn":716,"old":717,"iss":718,"ered":719,"Ġkn":720,"form":721,"Ġmost":722,"Ġduring":723,"gan":724,"ath":725,"aus":726,"Ġonly":727,"fer":728,"under":729,"ilm":730,"Ġnew":731,"Ġgame":732,"oy":733,"ved":734,"ember":735,"ve":736,"orth":737,"ollow":738,"ween":739,"Ġ199":740,"reat":741,"ĠAs":742,"way":743,"outh":744,"ĠAr":745,"Ġ9":746,"Ġ8":747,"Ġrel":748,"Ġcan":749,"Ġabout":750,"ters":751,"Ġagain":752,"Ġseason":753,"Ġthree":754,"Ġcons":755,"Ġthan":756,"ĠEn":757,"ick":758,"ug":759,"ĠMar":760,"Ġbetween":761,"att":762,"aw":763,"ral":764,"Ġrecord":765,"Ġsome":766,"ational":767,"Ġunder":768,"ons":769,"Ġchar":770,"cted":771,"ular":772,"fore":773,"Ġthrough":774,"ind":775,"ict":776,"Ġlater":777,"hip":778,"iew":779,"Ġcol":780,"Ġnum":781,"Ġ00":782,"ĠCom":783,"ft":784,"ision":785,"Ġwrit":786,"Ġwhile":787,"ĠDe":788,"Ġprodu":789,"Ġpos":790,"Ġfilm":791,"Ġrele":792,"Ġver":793,"ames":794,"Ġend":795,"Ġinter":796,"ished":797,"Ġap":798,"ey":799,"Ġpe":800,"Ġmade":801,"Ġpr":802,"Ġform":803,"ning":804,"Ġfl":805,"Ġreg":806,"Ġass":807,"orld":808,"Ġwhere":809,"Ġso":810,"Ġspec":811,"ĠNew":812,"Ġmov":813,"ever":814,"meric":815,"ĠAmeric":816,"ury":817,"Ġlar":818,"bum":819,"Ġac":820,"Ġapp":821,"Ġret":822,"ron":823,"Ġfollow":824,"ener":825,"Ġno":826,"Ġbu":827,"Ġsuch":828,"Ġdef":829,"Ġsecond":830,"ived":831,"Ġfour":832,"ock":833,"aid":834,"Ġmus":835,"Ġqu":836,"Ġacc":837,"Ġused":838,"Ġsub":839,"olog":840,"Ġinc":841,"Ġact":842,"ike":843,"ĠAt":844,"rop":845,"Ġday":846,"ĠThis":847,"ars":848,"ĠLe":849,"Ġpubl":850,"ific":851,"Ġam":852,"ual":853,"Ġcall":854,"Ġalbum":855,"Ġind":856,"hes":857,"Ġ000":858,"Ġbefore":859,"Ġdo":860,"Ġappe":861,"ob":862,"ily":863,"oh":864,"Ġbeing":865,"ank":866,"Ġgr":867,"Ġco":868,"any":869,"Ġyears":870,"ĠEng":871,"Ġthere":872,"Ġsupp":873,"Ġgro":874,"end":875,"ck":876,"owever":877,"ating":878,"ane":879,"Ġfound":880,"Ġ0":881,"Ġele":882,"Ġhigh":883,"Ġset":884,"iel":885,"Ġep":886,"ife":887,"ics":888,"orn":889,"hen":890,"Ġsy":891,"ird":892,"Ġent":893,"other":894,"iver":895,"Ġsur":896,"ained":897,"Ġ10":898,"Ġseries":899,"igin":900,"Ġnumber":901,"pen":902,"ten":903,"ll":904,"ince":905,"Ġloc":906,"ause":907,"Ġdec":908,"Ġpres":909,"ph":910,"velop":911,"Ġboth":912,"ode":913,"Ġsever":914,"ities":915,"cept":916,"Ġ12":917,"Ġthen":918,"Ġincluding":919,"ines":920,"Ġepis":921,"son":922,"ĠBrit":923,"Ġ/":924,"Ġagainst":925,"Ġwell":926,"Ġbecame":927,"Ġknown":928,"ject":929,"ĠâĢĶ":930,"ros":931,"ised":932,"Ġpo":933,"ton":934,"Ġcharac":935,"Ġadd":936,"Ġperform":937,"Ġdesc":938,"Ġsing":939,"Ġbl":940,"Ġgo":941,"Ġcap":942,"Ġ198":943,"Ġdire":944,"urch":945,"ĠJoh":946,"aj":947,"Ġ16":948,"ale":949,"Ġback":950,"Ġmany":951,"ĠSh":952,"Ġpop":953,"pr":954,"Ġmain":955,"ident":956,"though":957,"ĠUnited":958,"Ġinv":959,"Ġstud":960,"its":961,"Ġlong":962,"ise":963,"ather":964,"ures":965,"Ġtrans":966,"Ġorigin":967,"io":968,"ĠJohn":969,"ĠBr":970,"iet":971,"ert":972,"ement":973,"Ġcentury":974,"Ġmon":975,"Ġteam":976,"ober":977,"ĠAfter":978,"ool":979,"ĠSc":980,"Ġest":981,"Ġdevelop":982,"Ġshow":983,"ann":984,"Ġmin":985,"ield":986,"ek":987,"ower":988,"Ġem":989,"ier":990,"elf":991,"Ġ194":992,"air":993,"ute":994,"Ġcre":995,"Ġseveral":996,"ĠShe":997,"Ġlead":998,"uch":999,"Ġ17":1000,"ared":1001,"Ġbegan":1002,"Ġ196":1003,"ful":1004,"ivers":1005,"ern":1006,"Ġ11":1007,"Ġ15":1008,"Ġmill":1009,"Ġdif":1010,"Ġcontin":1011,"Ġ197":1012,"overn":1013,"Ġsign":1014,"ually":1015,"ram":1016,"view":1017,"Ġsm":1018,"ired":1019,"ative":1020,"Ġmay":1021,"Ġship":1022,"Ġcomple":1023,"Ġbr":1024,"Ġcould":1025,"Ġearly":1026,"Ġcrit":1027,"Ġdid":1028,"Ġcalled":1029,"ains":1030,"Ġart":1031,"Ġepisode":1032,"til":1033,"Ġnear":1034,"Ġob":1035,"ĠInd":1036,"Ġhist":1037,"Ġpol":1038,"Ġdescrib":1039,"led":1040,"Ġbel":1041,"emb":1042,"ued":1043,"Ġrece":1044,"ople":1045,"iam":1046,"une":1047,"Ġalong":1048,"Ġrun":1049,"ins":1050,"Ġter":1051,"imes":1052,"ments":1053,"Ġdep":1054,"Ġbro":1055,"ccess":1056,"Ġsaid":1057,"ley":1058,"ĠWh":1059,"Ġfeat":1060,"ĠAmerican":1061,"Ġdown":1062,"ven":1063,"ĠIs":1064,"Ġinst":1065,"Ġthese":1066,"aking":1067,"ĠMay":1068,"der":1069,"Ġmil":1070,"Ġdist":1071,"ĠAust":1072,"Ġthough":1073,"gest":1074,"ĠGer":1075,"ross":1076,"Ġdisc":1077,"yl":1078,"ĠBritish":1079,"Ġoper":1080,"Ġuntil":1081,"ĠZ":1082,"ove":1083,"ting":1084,"oot":1085,"Ġstart":1086,"anc":1087,"Ġcity":1088,"Ġsame":1089,"rap":1090,"Ġinf":1091,"ured":1092,"Ġprev":1093,"Ġreleased":1094,"els":1095,"Ġgener":1096,"ty":1097,"ange":1098,"Ġexp":1099,"Ġown":1100,"ized":1101,"Ġany":1102,"Ġreturn":1103,"tend":1104,"amed":1105,"ĠThey":1106,"ially":1107,"ĠWar":1108,"Ġkm":1109,"ided":1110,"Ġland":1111,"Ġdesign":1112,"Ġwar":1113,"Ġrep":1114,"Ġmusic":1115,"Ġprov":1116,"Ġimp":1117,"Ġmillion":1118,"Ġbecause":1119,"Ġarea":1120,"Ġuse":1121,"ajor":1122,"ĠCon":1123,"Ġcar":1124,"Ġfam":1125,"Ġair":1126,"az":1127,"ĠAug":1128,"ĠAugust":1129,"oman":1130,"Ġlike":1131,"Ġopen":1132,"Ġsuccess":1133,"Ġmat":1134,"osed":1135,"Ġsim":1136,"ĠFr":1137,"ĠChr":1138,"Ġocc":1139,"erson":1140,"ink":1141,"ep":1142,"enn":1143,"Ġconst":1144,"ook":1145,"Ġpeople":1146,"ull":1147,"Ġeff":1148,"hy":1149,"ium":1150,"Ġins":1151,"Ġpass":1152,"chool":1153,"Ġoffic":1154,"stem":1155,"ible":1156,"xt":1157,"Ġsix":1158,"Ġcount":1159,"Ġ195":1160,"Ġsupport":1161,"ĠBl":1162,"ĠBe":1163,"Ġaround":1164,"my":1165,"ĠHowever":1166,"Ġsmall":1167,"ah":1168,"Ġwin":1169,"Ġ%":1170,"ĠSept":1171,"uc":1172,"Ġnorth":1173,"Ġadv":1174,"Ġdam":1175,"Ġgroup":1176,"Ġstr":1177,"ĠCar":1178,"Ġpoin":1179,"Ġeach":1180,"ĠSeptember":1181,"ues":1182,"ony":1183,"Ġconsid":1184,"Ġmet":1185,"ouse":1186,"Ġfollowing":1187,"ĠPl":1188,"Ġcharacter":1189,"ĠJu":1190,"erv":1191,"ists":1192,"wards":1193,"ĠWorld":1194,"Ġlife":1195,"ms":1196,"Ġed":1197,"ĠAustral":1198,"Ġhead":1199,"Ġ13":1200,"aining":1201,"Ġfive":1202,"Ġmod":1203,"Ġcontro":1204,"Ġgovern":1205,"Ġattack":1206,"ole":1207,"Ġ193":1208,"ording":1209,"ĠComm":1210,"ient":1211,"ales":1212,"Ġvar":1213,"oss":1214,"uth":1215,"ĠAll":1216,"Ġwill":1217,"ĠTe":1218,"Ġlarge":1219,"Ġever":1220,"ution":1221,"ets":1222,"Ġ191":1223,"ĠII":1224,"ĠHer":1225,"Ġgu":1226,"ĠCol":1227,"Ġann":1228,"Ġreport":1229,"row":1230,"Ġconc":1231,"ague":1232,"ural":1233,"ĠUS":1234,"ĠMe":1235,"ĠCl":1236,"rote":1237,"lish":1238,"ĠJune":1239,"Ġbook":1240,"ĠNorth":1241,"aving":1242,"aced":1243,"ĠEu":1244,"ash":1245,"ĠFor":1246,"Ġtit":1247,"ĠGerman":1248,"dom":1249,"Ġsince":1250,"ĠStates":1251,"ik":1252,"Ġprom":1253,"Ġsouth":1254,"Ġreceived":1255,"Ġmajor":1256,"Ġfinal":1257,"ilt":1258,"med":1259,"ped":1260,"Ġname":1261,"ately":1262,"ivision":1263,"ĠJan":1264,"ĠAd":1265,"pect":1266,"ĠOct":1267,"Ġpartic":1268,"Ġsystem":1269,"ĠSouth":1270,"Ġpublic":1271,"Ġcare":1272,"Ġstate":1273,"Ġdr":1274,"ĠChrist":1275,"Ġwhat":1276,"ĠKing":1277,"ives":1278,"Ġdirect":1279,"uary":1280,"Ġlast":1281,"Ġhel":1282,"Ġdescribed":1283,"tle":1284,"hel":1285,"Ġext":1286,"ĠOctober":1287,"ored":1288,"Ġ14":1289,"Ġline":1290,"Ġ$":1291,"Ġappear":1292,"Ġrest":1293,"ĠCan":1294,"Ġbatt":1295,"Ġweek":1296,"Ġplayed":1297,"cess":1298,"Ġclass":1299,"Ġbuild":1300,"Ġincre":1301,"Ġtook":1302,"ropical":1303,"Ġnow":1304,"ĠFe":1305,"ĠNov":1306,"arl":1307,"Ġ[":1308,"Ġ]":1309,"ĠYork":1310,"gin":1311,"Ġworld":1312,"aged":1313,"ĠJuly":1314,"Ġwrote":1315,"Ġlate":1316,"ages":1317,"..":1318,"ĠTr":1319,"iving":1320,"empt":1321,"Ã©":1322,"ional":1323,"ble":1324,"Ġwon":1325,"Ġspecies":1326,"ology":1327,"ideo":1328,"Ġstru":1329,"aim":1330,"Ġchild":1331,"Ġ...":1332,"Ġmuch":1333,"Ġ25":1334,"ĠDuring":1335,"Ġdue":1336,"ody":1337,"ified":1338,"Ġserv":1339,"ĠApr":1340,"Ġsingle":1341,"ĠApril":1342,"Ġcamp":1343,"Ġallow":1344,"ats":1345,"iod":1346,"min":1347,"ĠGu":1348,"Ġshort":1349,"Ġport":1350,"Ġdeath":1351,"Ġvers":1352,"Ġjust":1353,"ball":1354,"Ġty":1355,"Ġmar":1356,"Ġanother":1357,"Ġincluded":1358,"ĠEuro":1359,"Ġposs":1360,"ĠJanuary":1361,"Ġold":1362,"ility":1363,"ively":1364,"Ġstorm":1365,"get":1366,"Ġeven":1367,"Ġdiffer":1368,"Ġgun":1369,"Ġwithin":1370,"ĠEngland":1371,"Ġlist":1372,"ission":1373,"Ġleft":1374,"Ġresult":1375,"ism":1376,"omin":1377,"Ġposition":1378,"Ġnamed":1379,"Ġbased":1380,"Ġestab":1381,"Ġif":1382,"Ġconf":1383,"ants":1384,"Ġarr":1385,"Ġalthough":1386,"Ġvis":1387,"Ġprog":1388,"Ġattempt":1389,"ax":1390,"ont":1391,"Ġ30":1392,"Ġvery":1393,"Ġappro":1394,"ina":1395,"Ġthird":1396,"Ġgames":1397,"by":1398,"ital":1399,"Ġtop":1400,"Ġref":1401,"ĠAnd":1402,"akes":1403,"Ġbelie":1404,"Ġtrack":1405,"ctions":1406,"ĠMarch":1407,"ner":1408,"ple":1409,"Ġlit":1410,"ĠGr":1411,"Ġprevious":1412,"Ġfamily":1413,"ĠMus":1414,"ĠPro":1415,"ĠNovember":1416,"Ġpower":1417,"Ġtri":1418,"Ġreview":1419,"Ġperiod":1420,"Ġevent":1421,"ĠQ":1422,"Ġbest":1423,"Ġhome":1424,"ĠGe":1425,"mber":1426,"Ġway":1427,"ilar":1428,"urric":1429,"Ġschool":1430,"Ġresp":1431,"ĠRo":1432,"ĠEurope":1433,"Ġwater":1434,"ĠHis":1435,"Ġgovernment":1436,"ances":1437,"ograp":1438,"ently":1439,"cember":1440,"Ġexpl":1441,"ĠDecember":1442,"Ġ192":1443,"Ġmen":1444,"ret":1445,"Ġthose":1446,"avy":1447,"raft":1448,"ĠThere":1449,"ĠBy":1450,"ger":1451,"Ġturn":1452,"Ġconstru":1453,"ience":1454,"Ġhum":1455,"Ġplace":1456,"ĠCity":1457,"ulation":1458,"Ġorgan":1459,"Ġsl":1460,"Ġbuilt":1461,"ature":1462,"Ġbre":1463,"pend":1464,"ards":1465,"urther":1466,"Ġgreat":1467,"ians":1468,"ides":1469,"Ġstory":1470,"Ġprote":1471,"Ġcommand":1472,"ached":1473,"Ġkill":1474,"Ġmonth":1475,"ĠWhen":1476,"Ġcolle":1477,"ched":1478,"hest":1479,"Ġsent":1480,"Ġperson":1481,"Ġoriginal":1482,"ript":1483,"iversity":1484,"itary":1485,"Ġmake":1486,"Ġhand":1487,"Ġopp":1488,"eder":1489,"Ġ100":1490,"Ġ2009":1491,"Ġ2010":1492,"Ġmed":1493,"Ġvideo":1494,"ĠNational":1495,"ĠÂ":1496,"Ġ2008":1497,"Ġauth":1498,"Ġrequ":1499,"Ġhal":1500,"ention":1501,"Ġpresent":1502,"oci":1503,"aur":1504,"por":1505,"Ġmark":1506,"Ġph":1507,"Ġsug":1508,"ham":1509,"Ġclub":1510,"Ġeng":1511,"ences":1512,"riend":1513,"iven":1514,"aster":1515,"elt":1516,"ene":1517,"Ġview":1518,"ĠMc":1519,"ically":1520,"self":1521,"ĠRiver":1522,"Ġmoved":1523,"Ġled":1524,"Ġrole":1525,"Ġaddition":1526,"Ġcapt":1527,"Ġstand":1528,"Ġstill":1529,"Ġcame":1530,"Ġleg":1531,"Ġlocal":1532,"Ġiss":1533,"Ġrepl":1534,"rench":1535,"gy":1536,"ense":1537,"ĠPr":1538,"aff":1539,"Ġoften":1540,"Ġhistory":1541,"urricane":1542,"Ġcommon":1543,"Ġcaus":1544,"Ġdest":1545,"ival":1546,"ĠWe":1547,"Ġcour":1548,"ae":1549,"ison":1550,"ĠMan":1551,"Ġdem":1552,"aken":1553,"Ġeffect":1554,"ery":1555,"Ġfew":1556,"be":1557,"ĠBo":1558,"ady":1559,"ĠNo":1560,"ops":1561,"Ġ2007":1562,"Ġnext":1563,"Ġconsidered":1564,"ĠFl":1565,"Ġtrad":1566,"ories":1567,"eng":1568,"Ġplayer":1569,"Ġsuggest":1570,"ling":1571,"lev":1572,"Ġstar":1573,"astern":1574,"ĠSp":1575,"ĠFrench":1576,"Ġexper":1577,"side":1578,"Ġmy":1579,"Ġsimilar":1580,"Ġcareer":1581,"ĠOne":1582,"Ġrecorded":1583,"ĠEnglish":1584,"Ġside":1585,"uss":1586,"Ġright":1587,"ĠPe":1588,"ined":1589,"Ġcr":1590,"Ġinit":1591,"let":1592,"Ġimport":1593,"Ġreal":1594,"ĠOr":1595,"Ġclaim":1596,"que":1597,"ĠBatt":1598,"Ġcompany":1599,"ai":1600,"Ġcover":1601,"Ġpublished":1602,"ĠBro":1603,"Ġdeb":1604,"Ġcontinued":1605,"Ġcontr":1606,"rew":1607,"arn":1608,"idge":1609,"Ġrefer":1610,"Ġyou":1611,"Ġtake":1612,"Ġbas":1613,"Ġwithout":1614,"Ġsold":1615,"Ġmid":1616,"ĠPh":1617,"ternational":1618,"Ġsongs":1619,"Ġdifferent":1620,"Ġsay":1621,"Ġtown":1622,"Ġformer":1623,"ĠWith":1624,"Ġant":1625,"ior":1626,"Ġwind":1627,"Ġheld":1628,"ĠComp":1629,"atter":1630,"ister":1631,"uted":1632,"ĠAcc":1633,"Ġamong":1634,"ness":1635,"Ġmemb":1636,"Ġlevel":1637,"lu":1638,"Ġtot":1639,"Ġarch":1640,"Ġroad":1641,"Ġtem":1642,"Ġpolit":1643,"Ġfield":1644,"ged":1645,"Ġwritten":1646,"arch":1647,"thing":1648,"ĠState":1649,"bs":1650,"Ġplan":1651,"Ġevery":1652,"ps":1653,"Ġes":1654,"ĠPort":1655,"Ġhalf":1656,"alk":1657,"Ġ21":1658,"ĠDivision":1659,"ampions":1660,"Ġtw":1661,"Ġ2011":1662,"Ġrelease":1663,"resent":1664,"ves":1665,"estern":1666,"iment":1667,"ĠWill":1668,"ead":1669,"Ġbecome":1670,"Ġav":1671,"Ġfurther":1672,"Ġmag":1673,"Ġ2006":1674,"Ġcommun":1675,"tended":1676,"ĠAccording":1677,"ĠAlthough":1678,"ensive":1679,"Ġwest":1680,"Ġhowever":1681,"Ġchurch":1682,"Ġ23":1683,"Ġdays":1684,"Ġstrong":1685,"ĠCanad":1686,"yle":1687,"itar":1688,"Ġeast":1689,"Ġfind":1690,"Ġversion":1691,"roy":1692,"lear":1693,"Ġjoin":1694,"ung":1695,"br":1696,"bru":1697,"Ġ&":1698,"ott":1699,"ried":1700,"ĠChurch":1701,"Ġcompet":1702,"Ġtitle":1703,"ĠCount":1704,"Ġparticular":1705,"ne":1706,"pite":1707,"mp":1708,"Ġlow":1709,"Ġmilitary":1710,"Ġpar":1711,"Ġdel":1712,"par":1713,"Ġbeh":1714,"rodu":1715,"ĠRoman":1716,"Ġorder":1717,"ĠLeague":1718,"Ġauthor":1719,"Ġprop":1720,"ĠMin":1721,"Ġdefe":1722,"Ġcontrol":1723,"Ġfoot":1724,"aly":1725,"outher":1726,"ĠSong":1727,"ĠFebru":1728,"outhern":1729,"ĠFebruary":1730,"ĠPer":1731,"ĠGener":1732,"Ġtimes":1733,"fric":1734,"Ġgave":1735,"Ġ22":1736,"Ġless":1737,"Ġ!":1738,"Ġsit":1739,"Ġ26":1740,"Ġreported":1741,"Ġmembers":1742,"Ġfr":1743,"Ġband":1744,"ĠDyl":1745,"Ġvict":1746,"raw":1747,"ĠDylan":1748,"Ġ24":1749,"ots":1750,"Ġchang":1751,"ĠGeor":1752,"Ġfore":1753,"ĠAb":1754,"Ġnort":1755,"Ġproduced":1756,"ches":1757,"Ġ2012":1758,"levision":1759,"Ġprof":1760,"Ġel":1761,"Ġtotal":1762,"augh":1763,"ices":1764,"ĠPark":1765,"ĠOld":1766,"ailed":1767,"ering":1768,"urs":1769,"Ġstat":1770,"ĠWest":1771,"line":1772,"aces":1773,"Ġproduction":1774,"Ġpopular":1775,"iety":1776,"Ġfre":1777,"Ġdecl":1778,"ception":1779,"Ġtropical":1780,"ĠBar":1781,"Ġnov":1782,"ront":1783,"hern":1784,"oung":1785,"Ġproject":1786,"Ġsol":1787,"Ġforces":1788,"ĠJap":1789,"itions":1790,"Ġpoint":1791,"Ġchildren":1792,"ĠJapan":1793,"Ġcur":1794,"Ġcult":1795,"Ġhaving":1796,"ĠPar":1797,"Ġinclude":1798,"reen":1799,"Ġcritic":1800,"Ġobs":1801,"Ġhistor":1802,"pec":1803,"ler":1804,"Ġ28":1805,"Ġinvol":1806,"ĠX":1807,"alion":1808,"Ġlost":1809,"Ġinflu":1810,"Ġgiven":1811,"Ġwant":1812,"ĠAss":1813,"inc":1814,"ression":1815,"Ġcountry":1816,"sh":1817,"Ġtro":1818,"Ġfire":1819,"Ġsignific":1820,"Ġrepresent":1821,"Ġmanag":1822,"ape":1823,"omen":1824,"ize":1825,"Ġ2013":1826,"ĠSim":1827,"chn":1828,"Ġsite":1829,"omet":1830,"Ġseen":1831,"osp":1832,"Ġeight":1833,"ĠDes":1834,"Ġprogram":1835,"Ġmaking":1836,"ĠAm":1837,"vers":1838,"Ġnever":1839,"Ġfar":1840,"ĠMiss":1841,"Ġstated":1842,"Ġestabl":1843,"Ġpress":1844,"Ġdet":1845,"ĠAfric":1846,"Ġcomb":1847,"ĠEd":1848,"ĠGeneral":1849,"Ġbody":1850,"Ġshould":1851,"Ġaff":1852,"ĠCent":1853,"ĠWhile":1854,"Ġmatch":1855,"ither":1856,"Ġfact":1857,"ploy":1858,"Ġreturned":1859,"reet":1860,"ising":1861,"Ġpat":1862,"ĠDav":1863,"ĠUniversity":1864,"rent":1865,"craft":1866,"Ġfem":1867,"enc":1868,"Ġord":1869,"Ġft":1870,"Ġpost":1871,"ĠPol":1872,"ours":1873,"ĠThese":1874,"Ġ190":1875,"ĠAmerica":1876,"ĠEar":1877,"Ġships":1878,"Ġestablished":1879,"Ġsound":1880,"Ġhow":1881,"Ġisland":1882,"sequ":1883,"Ġearl":1884,"ampionship":1885,"Ġpopulation":1886,"Ġannoun":1887,"Ġreached":1888,"Ġequ":1889,"ĠSte":1890,"Ġstruct":1891,"ĠJack":1892,"Ġchart":1893,"Ġ50":1894,"Ġaway":1895,"reland":1896,"Ġsoc":1897,"ades":1898,"ĠIreland":1899,"ably":1900,"Ġnoted":1901,"ĠAir":1902,"igade":1903,"ĠHa":1904,"Ġtoo":1905,"play":1906,"aul":1907,"ope":1908,"Ġfriend":1909,"Ġgod":1910,"Ġground":1911,"Ġthroughout":1912,"Ġacross":1913,"Ġdeveloped":1914,"Ġthought":1915,"Ġlight":1916,"ĠEv":1917,"fic":1918,"ox":1919,"Ġseven":1920,"me":1921,"Ġgen":1922,"Ġ27":1923,"ĠLond":1924,"Ġintrodu":1925,"ĠLondon":1926,"Ġdiv":1927,"Ġusing":1928,"Ġhimself":1929,"ground":1930,"Ġdevelopment":1931,"ĠNe":1932,"ĠWilliam":1933,"Ġgood":1934,"Ġdestroy":1935,"Ġla":1936,"ĠFeder":1937,"ford":1938,"Ġhig":1939,"Ġlim":1940,"aint":1941,"ument":1942,"most":1943,"Ġfelt":1944,"ese":1945,"ĠMich":1946,"Ġsignificant":1947,"used":1948,"reek":1949,"ĠAustralia":1950,"yn":1951,"idence":1952,"ctor":1953,"ological":1954,"Ġperformed":1955,"Ġimportant":1956,"au":1957,"Ġcast":1958,"work":1959,"Ġpra":1960,"amb":1961,"Ġwriting":1962,"ĠAtl":1963,"Ġmiles":1964,"Ġcou":1965,"Ġfather":1966,"arr":1967,"ords":1968,"Ġtelevision":1969,"oon":1970,"Ġide":1971,"int":1972,"ream":1973,"Ġinterest":1974,"ĠBlack":1975,"Ġvarious":1976,"atic":1977,"ivil":1978,"Ġareas":1979,"Ġhuman":1980,"imately":1981,"Ġtour":1982,"Ġnight":1983,"Ġblack":1984,"ones":1985,"Ġfull":1986,"Ġdied":1987,"Ġtyp":1988,"Ġwent":1989,"Ġlook":1990,"utes":1991,"Ġprot":1992,"Ġwat":1993,"Ġwhite":1994,"ĠRich":1995,"Ġrad":1996,"ĠChar":1997,"aren":1998,"Ġactiv":1999,"Ġdoes":2000,"Ġsuccessful":2001,"aign":2002,"ĠRober":2003,"Ġevents":2004,"Ġneed":2005,"ĠReg":2006,"Ġsk":2007,"Ġlaw":2008,"ief":2009,"ĠRoad":2010,"Ġplayers":2011,"Ġstarted":2012,"ges":2013,"ĠRoy":2014,"ĠJames":2015,"Ġmodern":2016,"Ġten":2017,"ask":2018,"Ġmm":2019,"Ġdiscover":2020,"Ġsee":2021,"Ġfeet":2022,"Ġformed":2023,"Ġcor":2024,"itive":2025,"Ġpoem":2026,"tain":2027,"Ġrange":2028,"antic":2029,"Ġconv":2030,"Ġperformance":2031,"ĠCounty":2032,"Ġmix":2033,"Ġhouse":2034,"Ġstyle":2035,"rick":2036,"Ġrelations":2037,"Ġbuilding":2038,"Ġball":2039,"Ġcaused":2040,"Ġcat":2041,"Ġforce":2042,"na":2043,"Ġage":2044,"Ġread":2045,"Ġprim":2046,"Ġput":2047,"ald":2048,"ster":2049,"ration":2050,"ĠEl":2051,"Ġvill":2052,"Ġtrav":2053,"Ġtechn":2054,"ĠYou":2055,"Ġcy":2056,"alth":2057,"Ġcreated":2058,"af":2059,"ael":2060,"ico":2061,"ĠPal":2062,"Ġ189":2063,"Ġofficial":2064,"Ġnovel":2065,"con":2066,"Ġ2004":2067,"Ġsuff":2068,"Ġ2005":2069,"ublic":2070,"Ġentire":2071,"isc":2072,"ĠTo":2073,"ush":2074,"Ġke":2075,"ogn":2076,"Ġable":2077,"Ġpolitical":2078,"ec":2079,"Ġfun":2080,"ourn":2081,"Ġcharacters":2082,"Ġsum":2083,"Ġget":2084,"Ġothers":2085,"Ġrelig":2086,"Ġcoast":2087,"ĠMag":2088,"ĠHigh":2089,"Ġconstruction":2090,"omb":2091,"Ġbird":2092,"Ġbegin":2093,"aves":2094,"abor":2095,"iness":2096,"oll":2097,"Ġoccur":2098,"ring":2099,"Ġson":2100,"Ġpit":2101,"Ġpri":2102,"epend":2103,"Ġcert":2104,"ĠTown":2105,"ĠâĢĻ":2106,"day":2107,"ying":2108,"Ġred":2109,"ĠGl":2110,"ressed":2111,"Ġonce":2112,"ample":2113,"Ġremained":2114,"ĠAng":2115,"Ġlocated":2116,"ination":2117,"rest":2118,"iting":2119,"asing":2120,"ĠCare":2121,"Ġste":2122,"isted":2123,"Ġbecom":2124,"Ġsurv":2125,"Ġpromot":2126,"Ġbattle":2127,"fall":2128,"Ġlik":2129,"Ġnational":2130,"ĠCor":2131,"Ġscored":2132,"Ġworks":2133,"Ġdiffic":2134,"ĠKingdom":2135,"Ġdifficult":2136,"ĠHist":2137,"ected":2138,"Ġproduc":2139,"Ġmeet":2140,"Ġcompleted":2141,"ĠIsland":2142,"ĠAustralian":2143,"Ġcampaign":2144,"Ġtradition":2145,"Ġannounced":2146,"ĠSom":2147,"ĠCal":2148,"Ġrank":2149,"ĠSec":2150,"uck":2151,"Ġstars":2152,"Ġregion":2153,"ator":2154,"Ġfig":2155,"Ġhold":2156,"Ġrock":2157,"Ġguns":2158,"ĠCup":2159,"ĠMor":2160,"ĠCompany":2161,"iers":2162,"rie":2163,"Ġprocess":2164,"Ġlittle":2165,"hem":2166,"Ġfav":2167,"Ġfight":2168,"ĠRec":2169,"Ġhighway":2170,"Ġgoal":2171,"Ġinstead":2172,"Ġhelp":2173,"Ġtre":2174,"ivid":2175,"irc":2176,"Ġpred":2177,"ĠCro":2178,"Ġval":2179,"Ġgrow":2180,"Ġadded":2181,"itted":2182,"ament":2183,"Ġgl":2184,"rought":2185,"Ġcross":2186,"ĠOl":2187,"Ġlet":2188,"Ġleast":2189,"Ġfollowed":2190,"Ġfac":2191,"Ġfront":2192,"Ġredu":2193,"ounc":2194,"Ġ31":2195,"Ġpeak":2196,"Ġappeared":2197,"Ġborn":2198,"Ġrev":2199,"quad":2200,"ĠKe":2201,"Ġknow":2202,"Ġkilled":2203,"leet":2204,"Ġoriginally":2205,"Ġmonths":2206,"Ġer":2207,"reg":2208,"Ġwife":2209,"Ġcomment":2210,"elling":2211,"ĠArmy":2212,"Ġsouthern":2213,"orse":2214,"ĠDavid":2215,"oice":2216,"Ġcas":2217,"Ġloss":2218,"ĠBill":2219,"ĠGrand":2220,"Ġfif":2221,"enced":2222,"ality":2223,"Ġhurricane":2224,"enth":2225,"Ġnuc":2226,"ĠHam":2227,"ries":2228,"Ġwomen":2229,"Ġassoci":2230,"Ġident":2231,"Ġeastern":2232,"Ġagre":2233,"ĠMusic":2234,"bo":2235,"Ġ29":2236,"angu":2237,"Ġrelationship":2238,"Ã¡":2239,"ÃŃ":2240,"Ġmass":2241,"Ġ2003":2242,"Ġcritics":2243,"off":2244,"Ġmother":2245,"ĠSome":2246,"Ġaccom":2247,"ĠFrance":2248,"Ġeventually":2249,"Ġaward":2250,"ĠSup":2251,"acy":2252,"Ġ40":2253,"Ġ185":2254,"Ġfeatures":2255,"gr":2256,"Ġbus":2257,"lect":2258,"idd":2259,"ĠOther":2260,"Ġ2015":2261,"field":2262,"Ġlive":2263,"Ġbroad":2264,"com":2265,"Ġaud":2266,"Ġcond":2267,"Ġanim":2268,"Ġyoung":2269,"ray":2270,"Ġtaken":2271,"Ġcell":2272,"Ġstri":2273,"app":2274,"Ġroute":2275,"Ġrecogn":2276,"Ġappoin":2277,"Ġfourth":2278,"ĠTwo":2279,"Ġserved":2280,"here":2281,"Ġbar":2282,"ully":2283,"ĠEx":2284,"Äģ":2285,"ota":2286,"emy":2287,"Ġestim":2288,"Ġdamage":2289,"Ġprofess":2290,"Ġlack":2291,"Ġheavy":2292,"antry":2293,"arliam":2294,"ique":2295,"inal":2296,"Ġsw":2297,"Ġbase":2298,"Ġeither":2299,"Ġsex":2300,"Ġdecided":2301,"ĠBattalion":2302,"Ġaver":2303,"osaur":2304,"ĠLove":2305,"Ġproble":2306,"Ġvoc":2307,"ĠSw":2308,"olution":2309,"Ġcondom":2310,"Ġcommer":2311,"Ġbehind":2312,"Ġtoget":2313,"aper":2314,"azine":2315,"Ġbelieved":2316,"Ġtogether":2317,"Ġmor":2318,"Ġsepar":2319,"ĠRobert":2320,"chie":2321,"Ġsuper":2322,"Ġarg":2323,"ille":2324,"ĠGod":2325,"ought":2326,"Ġplaying":2327,"ountain":2328,"Ġindivid":2329,"ĠCarey":2330,"arliament":2331,"Ġve":2332,"Ġimpro":2333,"igned":2334,"ization":2335,"lo":2336,"Ġcreat":2337,"Ġexample":2338,"Ġspecial":2339,"ĠRoyal":2340,"ouncil":2341,"ĠMon":2342,"Ġalmost":2343,"Ġclos":2344,"Ġclose":2345,"Ġ188":2346,"Ġmove":2347,"Ġaccept":2348,"ements":2349,"Ġquar":2350,"Ġleading":2351,"hys":2352,"ĠMex":2353,"ĠEuropean":2354,"cial":2355,"mar":2356,"Ġburn":2357,"Ġlangu":2358,"Ġask":2359,"Ġgenerally":2360,"Ġservice":2361,"ĠFederer":2362,"Ġtowards":2363,"Ġmater":2364,"Ġround":2365,"aching":2366,"Ġelements":2367,"Ġopened":2368,"Ġfall":2369,"Ġhy":2370,"Ġarm":2371,"Ġsour":2372,"Ġbrought":2373,"Ġdou":2374,"ĠSer":2375,"urb":2376,"ĠBer":2377,"ĠBrigade":2378,"Ġweeks":2379,"Ġmiss":2380,"Ġnon":2381,"ĠInternational":2382,"Ġfinished":2383,"iction":2384,"Ġce":2385,"Ġcirc":2386,"ĠCr":2387,"ĠIr":2388,"ĠWales":2389,"Ġra":2390,"illa":2391,"rict":2392,"Ġlaun":2393,"Ġsaw":2394,"icated":2395,"ceed":2396,"Ġstudy":2397,"Ġfeatured":2398,"Ġhost":2399,"ĠViet":2400,"Ġrespect":2401,"Ġaircraft":2402,"iation":2403,"Ġregular":2404,"ĠFlor":2405,"Ġdraw":2406,"ida":2407,"Ġenc":2408,"iron":2409,"ests":2410,"Ġvol":2411,"ĠWhite":2412,"Ġgeneral":2413,"Ġpoints":2414,"ned":2415,"read":2416,"Ġrese":2417,"ston":2418,"ĠHen":2419,"etwork":2420,"ĠPart":2421,"ways":2422,"Ġelect":2423,"Ġdirected":2424,"uter":2425,"ze":2426,"ounted":2427,"ĠChampionship":2428,"Ġcentral":2429,"Ġprovided":2430,"hic":2431,"Ġaction":2432,"ordan":2433,"Ġmeas":2434,"val":2435,"Ġfund":2436,"Ġinform":2437,"ĠAct":2438,"ĠSy":2439,"ĠHar":2440,"Ġ35":2441,"Ġupon":2442,"ĠPlay":2443,"Ġdirector":2444,"ography":2445,"iol":2446,"Ġwall":2447,"ĠGame":2448,"Ġmean":2449,"Ġappearance":2450,"eum":2451,"Ġwid":2452,"ĠFollow":2453,"ĠJordan":2454,"umb":2455,"ĠEast":2456,"Ġ186":2457,"Ġcoll":2458,"Ġearlier":2459,"Ġmi":2460,"ĠFrom":2461,"odes":2462,"Ġyard":2463,"ĠThom":2464,"ency":2465,"ĠPres":2466,"Ġsequ":2467,"Ġrather":2468,"Ġking":2469,"Ġ2014":2470,"Ġflood":2471,"Ġfemale":2472,"ĠAtlantic":2473,"bit":2474,"ino":2475,"irl":2476,"Ġindust":2477,"medi":2478,"Ġcurrent":2479,"Ġtroops":2480,"Ġlargest":2481,"Ġvictory":2482,"ĠFollowing":2483,"oring":2484,"Ġren":2485,"Ġreve":2486,"ĠJew":2487,"Ġdev":2488,"Ġsubsequ":2489,"Ġemploy":2490,"Ġoperations":2491,"ĠChristian":2492,"Ġparticularly":2493,"ĠGeorge":2494,"Ġmanager":2495,"ming":2496,"Ġachie":2497,"Ġcost":2498,"ĠMad":2499,"ĠHouse":2500,"ĠDay":2501,"ĠHero":2502,"cher":2503,"oid":2504,"ĠMary":2505,"ude":2506,"ĠRep":2507,"Ġopening":2508,"Ġwanted":2509,"stit":2510,"Ġbeg":2511,"ĠDu":2512,"Ġcondu":2513,"mb":2514,"eler":2515,"ĠRed":2516,"orts":2517,"Ġyards":2518,"Ġevidence":2519,"iber":2520,"Ġcut":2521,"Ġreason":2522,"ouri":2523,"Ġriver":2524,"Ġprob":2525,"Ġexc":2526,"ounter":2527,"ĠCommand":2528,"Ġnorthern":2529,"ĠFlorida":2530,"Ġmember":2531,"Ġstage":2532,"Ġinsp":2533,"cast":2534,"Ġleng":2535,"ĠRock":2536,"ĠStreet":2537,"Ġ500":2538,"Ġoutside":2539,"Ġcrew":2540,"Ġallowed":2541,"Ġpossible":2542,"Ġengine":2543,"oo":2544,"Ġfoc":2545,"Ġbi":2546,"Ġstren":2547,"action":2548,"Ġsaying":2549,"sel":2550,"Ġill":2551,"ĠMed":2552,"ellow":2553,"ĠOliv":2554,"cript":2555,"erous":2556,"atural":2557,"ania":2558,"Ġhit":2559,"Ġhours":2560,"Ġwhom":2561,"west":2562,"Ġcase":2563,"anch":2564,"ential":2565,"Ġnomin":2566,"conom":2567,"ators":2568,"Ġfort":2569,"Ġdeter":2570,"Ġexist":2571,"Ġ2001":2572,"Ġworked":2573,"Ġregard":2574,"ĠMissouri":2575,"alt":2576,"ĠMost":2577,"ĠOd":2578,"Ġpract":2579,"Ġstreng":2580,"eal":2581,"atin":2582,"Ġmot":2583,"ama":2584,"ĠBra":2585,"Ġworking":2586,"Ġterrit":2587,"Ġrespons":2588,"Ġlength":2589,"cent":2590,"nder":2591,"ĠMy":2592,"Ġnews":2593,"Ġreb":2594,"osition":2595,"ĠGal":2596,"artment":2597,"Ġdefend":2598,"board":2599,"Ġmaterial":2600,"ata":2601,"Ġbur":2602,"Ġmach":2603,"Ġgold":2604,"Ġpoor":2605,"Ġdesigned":2606,"Ġfree":2607,"Ġlove":2608,"ĠBay":2609,"ĠPaul":2610,"Ġseem":2611,"ump":2612,"Ġrul":2613,"Ġneg":2614,"ĠTech":2615,"thod":2616,"Ġstay":2617,"ĠWal":2618,"anding":2619,"Ġpraised":2620,"uel":2621,"ĠCo":2622,"ĠMark":2623,"Ġforced":2624,"ĠFirst":2625,"ights":2626,"ishing":2627,"Ġremains":2628,"ĠIndian":2629,"Ġavail":2630,"Ġfootball":2631,"ores":2632,"ĠBest":2633,"Ġ187":2634,"Ġ1970":2635,"ĠPhil":2636,"Ġbill":2637,"ana":2638,"Ġthink":2639,"Ġstation":2640,"Ġwinds":2641,"ĠMichael":2642,"less":2643,"Ġtreat":2644,"Ġcop":2645,"ĠWil":2646,"Ġquick":2647,"Ġgoals":2648,"Ġincreased":2649,"Ġcontract":2650,"heast":2651,"ened":2652,"Ġpast":2653,"Ġdi":2654,"aps":2655,"Ġpreviously":2656,"ĠÂ£":2657,"ius":2658,"vest":2659,"ica":2660,"Ġgre":2661,"ago":2662,"ĠEgy":2663,"Ġabove":2664,"Ġreplaced":2665,"ĠEgypt":2666,"gg":2667,"ule":2668,"xas":2669,"ĠCap":2670,"ĠBut":2671,"vert":2672,"Ġsoon":2673,"Ġinvest":2674,"ĠRichard":2675,"Ġcivil":2676,"Ġly":2677,"ĠBus":2678,"Ġviol":2679,"ĠDespite":2680,"Ġbusiness":2681,"Ġhon":2682,"Ġinterview":2683,"Ġmer":2684,"Ġthreat":2685,"ession":2686,"Ġ2000":2687,"ributed":2688,"Ġwriter":2689,"ĠÂ°":2690,"Ġcommercial":2691,"ĠHenry":2692,"erved":2693,"asion":2694,"Ġmph":2695,"irth":2696,"ĠHill":2697,"Ġunits":2698,"hens":2699,"ĠCanada":2700,"Ġestimated":2701,"Ġclear":2702,"ara":2703,"ĠSan":2704,"Ġ1990":2705,"Ġaccount":2706,"anned":2707,"ĠQue":2708,"Ġesc":2709,"Ġquarter":2710,"Ġsomet":2711,"Ġpain":2712,"ĠKh":2713,"Ġclaimed":2714,"Ġjoined":2715,"ĠJapanese":2716,"Ġhighest":2717,"uation":2718,"Ġtrib":2719,"utive":2720,"Ġplaced":2721,"Ġspecific":2722,"Ġsurf":2723,"ĠBrown":2724,"ĠOldham":2725,"Ġinvolved":2726,"wh":2727,"ye":2728,"Ġz":2729,"Ġmust":2730,"ĠTimes":2731,"Ġlo":2732,"Ġsigned":2733,"Ġdiscuss":2734,"Ġsuggested":2735,"ĠPresident":2736,"ĠTor":2737,"ĠVir":2738,"Ġparts":2739,"ĠDep":2740,"Ġcourt":2741,"Ġwestern":2742,"oms":2743,"ett":2744,"Ġintens":2745,"Ġ183":2746,"ĠOlivier":2747,"BC":2748,"iter":2749,"Ġproper":2750,"Ġleague":2751,"clus":2752,"Ġitself":2753,"Ġpriv":2754,"ĠCarol":2755,"ĠVietn":2756,"lic":2757,"Ġpers":2758,"ĠDr":2759,"ĠWhe":2760,"ĠLater":2761,"istic":2762,"wood":2763,"Ġobject":2764,"ĠIndia":2765,"Ġaverage":2766,"ĠMexico":2767,"tt":2768,"Ġtaking":2769,"thlet":2770,"Ġchange":2771,"Ġshot":2772,"ĠArab":2773,"Ġavailable":2774,"ington":2775,"ĠSchool":2776,"olic":2777,"osing":2778,"ĠGovern":2779,"Ġcome":2780,"Ġscene":2781,"ĠMcC":2782,"Ġintroduced":2783,"Ġcycl":2784,"ving":2785,"Ġfly":2786,"ĠIm":2787,"Ġwhose":2788,"Ġrecording":2789,"Ġtransport":2790,"Ġterm":2791,"Ġvillage":2792,"now":2793,"ita":2794,"Ġinj":2795,"Ġhous":2796,"ĠCong":2797,"achel":2798,"Ġheav":2799,"ĠVal":2800,"Ġtransfer":2801,"Ġbrother":2802,"ĠThomas":2803,"bor":2804,"nes":2805,"ximately":2806,"ĠHall":2807,"ĠVar":2808,"Ġreligious":2809,"ĠIrish":2810,"ready":2811,"Ġpen":2812,"lected":2813,"Ġrace":2814,"quar":2815,"ibility":2816,"Ġbreak":2817,"porary":2818,"Ġtravel":2819,"AF":2820,"band":2821,"onst":2822,"Ġslow":2823,"Ġtold":2824,"Ġdon":2825,"Ġnetwork":2826,"acing":2827,"ĠPac":2828,"Ġ36":2829,"ĠBritain":2830,"Ġshows":2831,"Ġ1960":2832,"Ġdamaged":2833,"rated":2834,"Ġ-":2835,"Ġnames":2836,"ĠCard":2837,"Ġstop":2838,"ĠHel":2839,"Ġrail":2840,"pected":2841,"Ġexec":2842,"abit":2843,"Ġremov":2844,"Ġincreasing":2845,"Ġturned":2846,"ĠRepublic":2847,"Ġmult":2848,"Ġlines":2849,"Ġgive":2850,"ĠHurricane":2851,"ĠThat":2852,"Ġsubject":2853,"Ġnine":2854,"ĠMany":2855,"ĠGreat":2856,"Ġdespite":2857,"ĠScient":2858,"Ġnearly":2859,"ĠGuitar":2860,"Ġappointed":2861,"Ġsize":2862,"Ġpie":2863,"ĠSm":2864,"ĠNot":2865,"oney":2866,"Ġfeel":2867,"Ġcomplet":2868,"ĠZeal":2869,"Ġcommunity":2870,"Ġstructure":2871,"ĠZealand":2872,"Ġ?":2873,"Ġop":2874,"Ġphys":2875,"Ġdate":2876,"Ġhard":2877,"ĠSun":2878,"Ġeconom":2879,"elled":2880,"Ġdiss":2881,"Ġindepend":2882,"Ġsurround":2883,"Ġpassed":2884,"Ġeduc":2885,"ault":2886,"Ġinternational":2887,"Ġpur":2888,"ĠMac":2889,"iding":2890,"ĠNY":2891,"ĠGold":2892,"ruction":2893,"ĠUnion":2894,"ronic":2895,"Ġestablish":2896,"Ġliter":2897,"Ġinitially":2898,"pecially":2899,"Ġcertain":2900,"head":2901,"Ġwithd":2902,"Ġalready":2903,"Ġ184":2904,"Ġimmedi":2905,"Ġgrad":2906,"Ġgoing":2907,"Ġsocial":2908,"Ġfailed":2909,"Ġmight":2910,"ĠAc":2911,"ĠRou":2912,"ume":2913,"Ġdeal":2914,"Ġrap":2915,"Ġchap":2916,"ĠChines":2917,"Ġdisplay":2918,"Ġ60":2919,"Ġassist":2920,"anna":2921,"Ġwinning":2922,"Ġarchae":2923,"ĠEarly":2924,"ĠChinese":2925,"Ġstates":2926,"ĠEver":2927,"Ġtraining":2928,"hedral":2929,"Ġ45":2930,"Ġscore":2931,"Ġaccording":2932,"Ġcapital":2933,"Ġoccup":2934,"Ġtype":2935,"Ġespecially":2936,"Ġlanguage":2937,"Ġprobably":2938,"ĠPacific":2939,"Ġfood":2940,"arily":2941,"Ġdoc":2942,"ĠMont":2943,"ĠEm":2944,"iff":2945,"Ġ2002":2946,"Ġminor":2947,"ĠColle":2948,"Ġissue":2949,"Ġdebut":2950,"Ġforest":2951,"for":2952,"Ġtest":2953,"Ġwood":2954,"Ġfut":2955,"aled":2956,"Ġmale":2957,"Ġdaugh":2958,"urt":2959,"ĠPre":2960,"Ġstudio":2961,"ĠIII":2962,"ties":2963,"Ġtow":2964,"ĠMos":2965,"Ġconn":2966,"ĠOs":2967,"Ġincludes":2968,"Ġspent":2969,"Ġarrived":2970,"Ġordered":2971,"ĠHistory":2972,"ĠWheeler":2973,"ĠÃ":2974,"ĠAg":2975,"ĠAwards":2976,"ĠSl":2977,"ĠFilm":2978,"ĠJin":2979,"Ġarmy":2980,"Ġenough":2981,"Ġremaining":2982,"Ġparticip":2983,"Ġvisit":2984,"ĠCanadian":2985,"onse":2986,"Ġfail":2987,"Ġmem":2988,"ĠCath":2989,"Ġforward":2990,"ĠNavy":2991,"odies":2992,"Ġmixed":2993,"Ġsometimes":2994,"atory":2995,"Ġcru":2996,"ula":2997,"ĠUK":2998,"Ġcomplete":2999,"Ġapproximately":3000,"Ġreviews":3001,"Ġrequired":3002,"ĠPeter":3003,"fect":3004,"nel":3005,"aries":3006,"Ġpot":3007,"Ġlatter":3008,"ĠCreek":3009,"ays":3010,"ĠRes":3011,"ulated":3012,"ilities":3013,"ĠSing":3014,"ĠRose":3015,"ĠDon":3016,"Ġrain":3017,"Ġabs":3018,"Ġcenter":3019,"Ġremain":3020,"ference":3021,"ĠAssoci":3022,"ĠAfrica":3023,"Ġbeginning":3024,"hib":3025,"ulf":3026,"ĠLaw":3027,"Ġblock":3028,"ĠAngel":3029,"eth":3030,"tation":3031,"Ġlower":3032,"ateg":3033,"Ġdecision":3034,"Ġanti":3035,"Ġlimited":3036,"enes":3037,"Ġdro":3038,"ste":3039,"chol":3040,"Ġusually":3041,"ĠArt":3042,"Ġadditional":3043,"Ġchanges":3044,"ĠRegiment":3045,"ites":3046,"Ġden":3047,"ĠMo":3048,"ĠRachel":3049,"ĠJer":3050,"rian":3051,"Ġjourn":3052,"Ġbetter":3053,"Ġindic":3054,"Ġpresident":3055,"Ġrunning":3056,"Ġresponse":3057,"ĠVirgin":3058,"itz":3059,"ĠSoc":3060,"Ġkey":3061,"Ġpositive":3062,"Ġended":3063,"Ġlarger":3064,"Ġstudents":3065,"ĠSuper":3066,"Ġwoman":3067,"Ġmention":3068,"ĠNort":3069,"Ġdead":3070,"Ġsupported":3071,"Ġmagazine":3072,"quadron":3073,"Ġtouch":3074,"ĠAward":3075,"lymp":3076,"ĠPenn":3077,"ĠOlymp":3078,"Ġnotes":3079,"ĠStud":3080,"rics":3081,"ĠScott":3082,"Ġpolice":3083,"Ġdepression":3084,"Ġpressure":3085,"Ġwide":3086,"Ġcal":3087,"aval":3088,"ĠVer":3089,"Ġpoet":3090,"ĠCharles":3091,"Ġbirds":3092,"gl":3093,"tr":3094,"edy":3095,"enty":3096,"Ġshown":3097,"Ġ1995":3098,"Ġquest":3099,"Ġprevent":3100,"ĠBillboard":3101,"ases":3102,"aph":3103,"aker":3104,"Ġspace":3105,"Ġrelated":3106,"Ġfuture":3107,"back":3108,"Ġ38":3109,"Ġ1980":3110,"Ġprovide":3111,"Ġdefeated":3112,"Ġfifth":3113,"go":3114,"rd":3115,"uf":3116,"Ġface":3117,"arm":3118,"Ġhom":3119,"ĠTV":3120,"ĠTom":3121,"stant":3122,"ĠPri":3123,"uments":3124,"Ġdiscovered":3125,"ih":3126,"leg":3127,"ĠTer":3128,"owl":3129,"Ġstaff":3130,"ĠFort":3131,"Ġsyn":3132,"Ġfeature":3133,"Ġtemper":3134,"ĠRoute":3135,"men":3136,"ss":3137,"Ġanc":3138,"Ġ80":3139,"Ġprior":3140,"Ġbecoming":3141,"co":3142,"uals":3143,"Ġaut":3144,"Ġbirth":3145,"Ġdoll":3146,"ids":3147,"irt":3148,"ands":3149,"ifa":3150,"mitted":3151,"Ġcm":3152,"ĠWestern":3153,"Ġsection":3154,"ĠOff":3155,"riage":3156,"Ġexam":3157,"Ġsmaller":3158,"Ġfrequ":3159,"gely":3160,"inct":3161,"onc":3162,"Ġintended":3163,"ĠApp":3164,"idents":3165,"bert":3166,"aby":3167,"Ġscreen":3168,"Ġdisp":3169,"Ġgroups":3170,"Ġidea":3171,"ĠScientology":3172,"aring":3173,"Ġconclud":3174,"ĠInf":3175,"ishop":3176,"Ġpercent":3177,"Ġthemsel":3178,"Ġmostly":3179,"ĠFrank":3180,"Ġmetres":3181,"ĠHaifa":3182,"stein":3183,"Ġthemselves":3184,"aut":3185,"ney":3186,"orial":3187,"Ġfleet":3188,"anies":3189,"ĠTur":3190,"ĠHot":3191,"agon":3192,"quare":3193,"ĠStar":3194,"Ġ2016":3195,"ĠYear":3196,"Ġminutes":3197,"Ġcaptured":3198,"Ġreferred":3199,"Ġlikely":3200,"Ġresearch":3201,"Ġsurface":3202,"Ġword":3203,"Ġfir":3204,"enon":3205,"Ġdomin":3206,"ĠSince":3207,"ching":3208,"ĠLa":3209,"iforn":3210,"Ġoffice":3211,"Ġlargely":3212,"Ġmusical":3213,"rief":3214,"ĠCroat":3215,"Ġprofessional":3216,"Ġproblems":3217,"ĠAssociation":3218,"down":3219,"Ġflow":3220,"ĠParliament":3221,"ĠFI":3222,"ĠLight":3223,"rael":3224,"Ġ75":3225,"Ġentered":3226,"Ġmedia":3227,"ee":3228,"gar":3229,"Ġsem":3230,"Ġmakes":3231,"Ġcontem":3232,"Ġmoving":3233,"Ġamount":3234,"Ġbroadcast":3235,"ners":3236,"Ġcer":3237,"Ġder":3238,"ĠSov":3239,"omm":3240,"Ġlearn":3241,"Ġcontains":3242,"Ġemb":3243,"Ġconstructed":3244,"ĠPortug":3245,"Ġradio":3246,"quarters":3247,"gu":3248,"uk":3249,"Ã³":3250,"oul":3251,"Ġlink":3252,"ĠOper":3253,"sec":3254,"Ġens":3255,"Ġ1999":3256,"Ġkeep":3257,"Ġsummer":3258,"ĠCaliforn":3259,"bers":3260,"ises":3261,"Ġpair":3262,"Ġmoney":3263,"acted":3264,"ĠRuss":3265,"ĠJe":3266,"pped":3267,"ples":3268,"Ġguitar":3269,"Ġeffects":3270,"Ġcele":3271,"ios":3272,"to":3273,"ville":3274,"ergy":3275,"itte":3276,"isions":3277,"anish":3278,"Ġnature":3279,"ĠCouncil":3280,"Ġstories":3281,"ĠHow":3282,"cean":3283,"Ġsea":3284,"Ġvoice":3285,"Ġgrant":3286,"ĠIsrael":3287,"Ġ1950":3288,"Ġmajority":3289,"Ġlisted":3290,"Ġobserv":3291,"ĠEarth":3292,"Ġranked":3293,"ĠJewish":3294,"uz":3295,"Ġself":3296,"Ġparen":3297,"Ġlay":3298,"Ġadop":3299,"Ġcreate":3300,"Ġarrang":3301,"Ġexperience":3302,"ĠGalvest":3303,"ĠGalveston":3304,"den":3305,"uing":3306,"eding":3307,"ĠMet":3308,"ĠWood":3309,"ĠOtt":3310,"Ġleaving":3311,"Ġcritical":3312,"Ġthus":3313,"ĠChic":3314,"Ġprimary":3315,"Ġfavor":3316,"ires":3317,"lor":3318,"Ġschol":3319,"Ġlived":3320,"urity":3321,"owler":3322,"Ġalways":3323,"ĠAnother":3324,"Ġconsist":3325,"Ġlocation":3326,"ylv":3327,"minist":3328,"Ġgods":3329,"Ġagreed":3330,"Ġlyrics":3331,"iest":3332,"reak":3333,"Ġbrief":3334,"Ġpay":3335,"Ġlab":3336,"imate":3337,"ĠFin":3338,"ĠGo":3339,"aven":3340,"Ġrare":3341,"teen":3342,"Ġcompl":3343,"Ġfilms":3344,"Ġruns":3345,"Ġofficers":3346,"Ġcontroll":3347,"Ġlaunched":3348,"ĠCalifornia":3349,"ping":3350,"pool":3351,"tar":3352,"Ġcoin":3353,"ĠServ":3354,"ĠCamp":3355,"ĠBey":3356,"Ġcolon":3357,"Ġsett":3358,"Ġteams":3359,"Ġculture":3360,"Ġfriends":3361,"osaurus":3362,"Ġquickly":3363,"ĠCatholic":3364,"ĠHol":3365,"change":3366,"Ġmeant":3367,"Ġepisodes":3368,"ĠBrad":3369,"Ġminute":3370,"hester":3371,"Ġproposed":3372,"Ġoccurred":3373,"oor":3374,"pan":3375,"ror":3376,"ĠAle":3377,"urg":3378,"ĠIf":3379,"arts":3380,"ĠUp":3381,"Ġwhether":3382,"oke":3383,"key":3384,"Ġprem":3385,"Ġattr":3386,"Ġassigned":3387,"Ġaccess":3388,"Ġsettle":3389,"Ġincrease":3390,"Ġequip":3391,"kan":3392,"zy":3393,"Ġsat":3394,"atively":3395,"Ġfans":3396,"Ġpian":3397,"ĠSaint":3398,"Ġvot":3399,"illery":3400,"Ġtraff":3401,"Ġadap":3402,"Ġforms":3403,"ification":3404,"Ġappears":3405,"Ġdefeat":3406,"Ġchanged":3407,"Ġdestroyed":3408,"Ġtraffic":3409,"Ġtons":3410,"ĠMr":3411,"imum":3412,"ĠNic":3413,"ĠNix":3414,"ability":3415,"Ġ400":3416,"Ġscript":3417,"Ġcommission":3418,"Ġearth":3419,"Ġlonger":3420,"ospital":3421,"ĠCentral":3422,"Ġmeaning":3423,"ĠChicago":3424,"rup":3425,"asy":3426,"ĠRoss":3427,"Ġjob":3428,"Ġ70":3429,"Ġtheme":3430,"Ġnumbers":3431,"Ġ1940":3432,"Ġconcern":3433,"ĠBattle":3434,"Ġsoldiers":3435,"Ġcompetition":3436,"sis":3437,"Ġmom":3438,"Ġreach":3439,"aded":3440,"ĠHaw":3441,"andon":3442,"Ġleave":3443,"Ġtrade":3444,"ruit":3445,"Ġbound":3446,"ĠAlice":3447,"vey":3448,"Ġcarried":3449,"onym":3450,"Ġawarded":3451,"Ġfocus":3452,"ĠNorthern":3453,"Ġcelebr":3454,"Ġhop":3455,"Ġgirl":3456,"ĠLatin":3457,"undred":3458,"Ġ33":3459,"Ġ1998":3460,"ĠEnter":3461,"ĠQu":3462,"Ġconducted":3463,"Ġprivate":3464,"Ġdaughter":3465,"Ġsil":3466,"Ġcred":3467,"Ġnatural":3468,"ĠLou":3469,"Ġdeep":3470,"ĠOver":3471,"bery":3472,"Ġrecords":3473,"Ġunderst":3474,"Ġsubsequently":3475,"Ġnewsp":3476,"Ġcause":3477,"Ġtourn":3478,"ĠMey":3479,"Ġanaly":3480,"Ġran":3481,"ortun":3482,"Ġplans":3483,"Ġ300":3484,"Ġunc":3485,"ĠVilla":3486,"ĠScot":3487,"Ġconsider":3488,"Ġ1930":3489,"Ġfighting":3490,"oir":3491,"Ġtakes":3492,"itect":3493,"Ġbord":3494,"ari":3495,"Ġded":3496,"ĠMer":3497,"iva":3498,"ĠDj":3499,"Ġshoot":3500,"ĠAlkan":3501,"Ġoverall":3502,"Ġ1993":3503,"Ġinfluence":3504,"ĠPolish":3505,"ĠSecond":3506,"Ġcommented":3507,"Ġindustry":3508,"Ġ+":3509,"Ġcle":3510,"Ġbomb":3511,"ĠMa":3512,"usband":3513,"ĠPat":3514,"ĠFore":3515,"ĠLiver":3516,"ruct":3517,"ĠItal":3518,"Ġserious":3519,"Ġfinally":3520,"Ġelection":3521,"Ġbring":3522,"Ġconcert":3523,"Ġasked":3524,"ĠNixon":3525,"ĠLiverpool":3526,"tained":3527,"ĠTay":3528,"Ġemer":3529,"ĠForm":3530,"Ġdeg":3531,"Ġkil":3532,"Ġ32":3533,"Ġcompared":3534,"Ġwhole":3535,"Ġimm":3536,"Ġmethod":3537,"Ġending":3538,"Ġgreater":3539,"hou":3540,"oly":3541,"sen":3542,"Ġdone":3543,"ĠBC":3544,"ĠGro":3545,"Ġunable":3546,"ĠIts":3547,"ĠSever":3548,"ĠTexas":3549,"ĠChristm":3550,"Ġmarried":3551,"Ġpositions":3552,"Ġdouble":3553,"stitute":3554,"well":3555,"inent":3556,"Ġour":3557,"Ġinn":3558,"anced":3559,"ĠTre":3560,"ĠTour":3561,"aches":3562,"ĠLady":3563,"erset":3564,"Ġupper":3565,"Ġcann":3566,"Ġbuildings":3567,"ĠSomerset":3568,"gian":3569,"Ġtar":3570,"Ġsus":3571,"Ġche":3572,"Ġdram":3573,"ĠTropical":3574,"Ġthick":3575,"ĠMart":3576,"Ġgot":3577,"umn":3578,"ills":3579,"Ġyet":3580,"Ġcentre":3581,"Ġearned":3582,"Ġflight":3583,"anks":3584,"ĠMosley":3585,"unt":3586,"Ġcounter":3587,"Ġbig":3588,"Ġliving":3589,"ĠCour":3590,"ĠMil":3591,"ĠThree":3592,"Ġparty":3593,"Ġenv":3594,"aily":3595,"Ġ1996":3596,"Ġ90":3597,"Ġacqu":3598,"Ġpersonal":3599,"Ġstandard":3600,"Ġissued":3601,"Ġnucle":3602,"Ġbegins":3603,"ĠBusch":3604,"Ġrapid":3605,"gen":3606,"Ġpurch":3607,"ĠTenn":3608,"Ġthrow":3609,"Ġlog":3610,"ĠMount":3611,"Ġkind":3612,"ĠStr":3613,"Ġbox":3614,"Ġterms":3615,"Ġdirectly":3616,"Ġmarked":3617,"Ġmarket":3618,"ittee":3619,"dle":3620,"Ġult":3621,"ĠSk":3622,"amer":3623,"ĠBel":3624,"ulted":3625,"ĠLake":3626,"Ġhero":3627,"Ġhealth":3628,"Ġscenes":3629,"ails":3630,"Ġmovement":3631,"Ġbooks":3632,"Ġmarriage":3633,"ĠSpanish":3634,"Ġstatus":3635,"ĠTaylor":3636,"ĠChristmas":3637,"Ġdom":3638,"ĠBack":3639,"ĠFowler":3640,"Ġconcept":3641,"Ġhelped":3642,"Ġportray":3643,"Ġslight":3644,"ĠSeveral":3645,"Ġund":3646,"Ġtell":3647,"Ġbatter":3648,"ĠJo":3649,"umed":3650,"istics":3651,"Ġplanned":3652,"Ġsched":3653,"Ġstarting":3654,"Ġattacks":3655,"Ġschools":3656,"Ġexperi":3657,"ĠAfrican":3658,"Ġsuffered":3659,"Ġtraditional":3660,"Ġinformation":3661,"Ġopt":3662,"itor":3663,"iser":3664,"Ġdig":3665,"Ġdark":3666,"Ġgiving":3667,"ĠPit":3668,"alled":3669,"ĠStorm":3670,"Ġjud":3671,"Ġspeed":3672,"Ġperformances":3673,"Ġfigure":3674,"Ġassociated":3675,"Ġinspired":3676,"ĠInfantry":3677,"AS":3678,"ma":3679,"Ġx":3680,"itude":3681,"Ġdivision":3682,"Ġhusband":3683,"ĠTw":3684,"ĠSam":3685,"ĠJane":3686,"Ġclosed":3687,"Ġabandon":3688,"athan":3689,"ĠArch":3690,"Ġleaders":3691,"embly":3692,"Ġpresented":3693,"Ġcondoms":3694,"Ġsource":3695,"ĠParty":3696,"Ġmachine":3697,"ĠSoviet":3698,"awn":3699,"Ġmur":3700,"ĠFoot":3701,"Ġvia":3702,"Ġpresence":3703,"Ġgreatest":3704,"Ġinitial":3705,"ĠSeries":3706,"Ġraised":3707,"Ġdetermin":3708,"II":3709,"iant":3710,"mium":3711,"Ġwound":3712,"ĠCross":3713,"ĠBob":3714,"Ġexcept":3715,"Ġunit":3716,"Ġroom":3717,"ĠVict":3718,"Ġuses":3719,"Ġwriters":3720,"Ġcontinue":3721,"Ġnearby":3722,"aught":3723,"ĠParis":3724,"ĠCarolina":3725,"Ġeducation":3726,"Ġdocument":3727,"ĠRosebery":3728,"ĠVirginia":3729,"Ã³n":3730,"ylvania":3731,"ks":3732,"itation":3733,"Ġnorm":3734,"ĠBoy":3735,"ĠLive":3736,"Ġplot":3737,"raf":3738,"Ġuns":3739,"Ġdism":3740,"Ġimage":3741,"iami":3742,"Ġcollection":3743,"Ġcovered":3744,"Ġcyclone":3745,"ĠPenns":3746,"cing":3747,"oration":3748,"Ġhundred":3749,"Ġrein":3750,"olk":3751,"ĠBen":3752,"ĠJam":3753,"ĠJust":3754,"Ġchall":3755,"Ġcomposed":3756,"Ġweap":3757,"ĠAnt":3758,"Ġcomplex":3759,"Ġannual":3760,"Ġservices":3761,"incip":3762,"ĠQueen":3763,"ĠCollege":3764,"erve":3765,"atre":3766,"Ġbodies":3767,"Ġreally":3768,"ĠCer":3769,"ĠRob":3770,"eway":3771,"Ġextended":3772,"Ġ1997":3773,"Ġnumerous":3774,"Ġpolic":3775,"Ġcommander":3776,"Ġcathedral":3777,"Ġproducer":3778,"Ġfigures":3779,"Ġterritory":3780,"oncÃ©":3781,"ĠBeyoncÃ©":3782,"bar":3783,"joy":3784,"ken":3785,"Ġtor":3786,"Ġfell":3787,"Ġpark":3788,"Ġpath":3789,"icted":3790,"Ġthings":3791,"ĠSix":3792,"ĠMiami":3793,"etic":3794,"aging":3795,"Ġdepend":3796,"ĠOpen":3797,"essa":3798,"Ġenjoy":3799,"ĠGermany":3800,"ĠMuseum":3801,"Ġproteins":3802,"Ġvocals":3803,"rical":3804,"erbe":3805,"anded":3806,"ĠNations":3807,"Ġsev":3808,"ift":3809,"Ġ39":3810,"ously":3811,"Ġprep":3812,"Ġsomething":3813,"Ġoperation":3814,"ĠClub":3815,"Ġwaters":3816,"anz":3817,"anas":3818,"ĠTheir":3819,"estival":3820,"Ġcompanies":3821,"ĠThrough":3822,"Ġhighly":3823,"Ġattacked":3824,"Ġattempts":3825,"Ġrequest":3826,"Ġmorning":3827,"Ġstrength":3828,"Ġinvestig":3829,"ĠService":3830,"ny":3831,"Ġtalk":3832,"Ġreject":3833,"admium":3834,"ĠIll":3835,"Ġaspect":3836,"ander":3837,"ĠInn":3838,"Ġdise":3839,"Ġfinanc":3840,"Ġtransl":3841,"Ġmetal":3842,"Ġconfir":3843,"ĠPrince":3844,"Ġera":3845,"Ġindividual":3846,"Ġimmediately":3847,"ĠPennsylvania":3848,"lim":3849,"Ġpil":3850,"ĠSur":3851,"ĠSquadron":3852,"ademy":3853,"uries":3854,"Ġstone":3855,"ĠGames":3856,"ĠInter":3857,"apo":3858,"Ġnecess":3859,"Ġinterse":3860,"Ġincor":3861,"Ġartist":3862,"Ġdistance":3863,"Ġallowing":3864,"Ġpowerful":3865,"Ġsituation":3866,"Ġnuclear":3867,"Ġremoved":3868,"Ġpiano":3869,"NA":3870,"mon":3871,"ply":3872,"vement":3873,"Ġhabit":3874,"olf":3875,"ĠHum":3876,"ĠWater":3877,"Ġselected":3878,"ipp":3879,"Ġrecover":3880,"lands":3881,"Ġoffered":3882,"ibly":3883,"Ġstudies":3884,"Ġartillery":3885,"Ġinside":3886,"Ġadvance":3887,"Ġvariety":3888,"ĠJackson":3889,"Ġneeded":3890,"Ġpeaked":3891,"ĠScotland":3892,"TV":3893,"Ġhot":3894,"Ġnative":3895,"chan":3896,"Ġattend":3897,"ĠJose":3898,"Ġrate":3899,"ĠUnder":3900,"Ġ42":3901,"Ġ182":3902,"Ġmeans":3903,"Ġ1991":3904,"ĠChris":3905,"Ġcountries":3906,"Ġheadquarters":3907,"Ġattempted":3908,"ĠSomal":3909,"Ġcopies":3910,"pole":3911,"Ġsaf":3912,"rol":3913,"ĠAI":3914,"adium":3915,"imony":3916,"ether":3917,"ĠLos":3918,"Ġsearch":3919,"ria":3920,"anta":3921,"Ġkick":3922,"ĠChina":3923,"Ġscoring":3924,"ribution":3925,"Ġprincip":3926,"Ġcoach":3927,"Ġtracks":3928,"Ġhands":3929,"Ġarchitect":3930,"Ġcasual":3931,"Ġrespectively":3932,"Ġresponsible":3933,"Ġpurp":3934,"track":3935,"een":3936,"Ġpurs":3937,"Ġmole":3938,"ĠMajor":3939,"Ġrule":3940,"ĠOut":3941,"Ġ47":3942,"Ġsymb":3943,"Ġdescribes":3944,"Ġimpact":3945,"Ġadvant":3946,"Ġappearances":3947,"ĠAnderson":3948,"ĠBoth":3949,"Ġgenus":3950,"Ġhigher":3951,"Ġwidely":3952,"ĠDepartment":3953,"Ġtouchdown":3954,"cer":3955,"ha":3956,"ĠCrit":3957,"cend":3958,"ĠDan":3959,"andid":3960,"ĠNor":3961,"Ġtext":3962,"anger":3963,"Ġspir":3964,"orship":3965,"Ġ1992":3966,"Ġsets":3967,"Ġcontrovers":3968,"Ġcourse":3969,"Ġobserved":3970,"ĠCorps":3971,"Ġsexual":3972,"ĠBraat":3973,"Ġheavily":3974,"ĠFootball":3975,"of":3976,"rey":3977,"reme":3978,"Ġpick":3979,"oud":3980,"ĠAre":3981,"Ġadult":3982,"Ġ44":3983,"ports":3984,"Ġ1994":3985,"Ġrelief":3986,"Ġamb":3987,"Ġbelow":3988,"Ġphot":3989,"Ġmiddle":3990,"Ġmeeting":3991,"Ġreduced":3992,"ĠAlex":3993,"Ġxenon":3994,"iny":3995,"Ġintern":3996,"icient":3997,"Ġang":3998,"ĠLi":3999,"ĠLike":4000,"Ġplat":4001,"Ġadminist":4002,"Ġresulted":4003,"Ġboy":4004,"Ġsecret":4005,"Ġactive":4006,"Ġsinger":4007,"Ġmatches":4008,"Ġsixth":4009,"ĠMinnes":4010,"ricket":4011,"Ġaudience":4012,"Ġconcluded":4013,"ĠMinnesota":4014,"aen":4015,"car":4016,"ga":4017,"lict":4018,"ship":4019,"Ġsal":4020,"ĠTem":4021,"ĠTime":4022,"ils":4023,"akapo":4024,"Ġtrue":4025,"Ġlands":4026,"ĠFranc":4027,"inkel":4028,"Ġactivity":4029,"Ġactivities":4030,"Ġcompletely":4031,"ĠVictor":4032,"Ġess":4033,"isher":4034,"ĠSouthern":4035,"cts":4036,"Ġstating":4037,"ĠDel":4038,"send":4039,"Ġmanaged":4040,"Ġopportun":4041,"ĠCenter":4042,"ĠTownsend":4043,"Ġrevealed":4044,"Ġcontemporary":4045,"like":4046,"atives":4047,"Ġfill":4048,"Ġhour":4049,"ems":4050,"ocr":4051,"ĠSea":4052,"Ġquality":4053,"Ġgraph":4054,"ĠColon":4055,"Ġrefused":4056,"Ġlevels":4057,"Ġdeclared":4058,"Ġtrees":4059,"Ġseparate":4060,"ĠItalian":4061,"cause":4062,"iated":4063,"Ġbad":4064,"ication":4065,"ĠSir":4066,"ĠMidd":4067,"ĠFinkel":4068,"ĠLong":4069,"ologist":4070,"Ġblue":4071,"annel":4072,"Ġconstit":4073,"ĠBecause":4074,"rowd":4075,"ĠForce":4076,"Ġdrum":4077,"ĠWalpole":4078,"Ġquestion":4079,"ĠHawai":4080,"ĠMeyerbe":4081,"ĠFinkelstein":4082,"ĠMeyerbeer":4083,"MS":4084,"iqu":4085,"ining":4086,"Ġtoday":4087,"lement":4088,"ĠTessa":4089,"ĠSol":4090,"ify":4091,"aped":4092,"Ġuniversity":4093,"peror":4094,"Ġrecent":4095,"Ġshell":4096,"athus":4097,"Ġblood":4098,"Ġbackground":4099,"ĠShiva":4100,"Ġfeaturing":4101,"Ġinstit":4102,"Ġcarry":4103,"Ġmodel":4104,"Ġapproach":4105,"Ġcontrast":4106,"Ġhistorical":4107,"Ġtypically":4108,"Ġparents":4109,"ares":4110,"Ġiron":4111,"Ġactions":4112,"Ġpaper":4113,"ĠCast":4114,"Ġris":4115,"oph":4116,"Ġexpected":4117,"Ġ51":4118,"ĠYue":4119,"Ġ76":4120,"Ġdescript":4121,"Ġissues":4122,"Ġconditions":4123,"Ġmultip":4124,"ĠSmith":4125,"ĠSociety":4126,"ĠOttoman":4127,"ĠNicole":4128,"uff":4129,"Ġtax":4130,"hew":4131,"Ġwing":4132,"alty":4133,"ican":4134,"Ġreception":4135,"ĠMill":4136,"ĠBet":4137,"utch":4138,"ĠWild":4139,"ĠLit":4140,"Ġrhy":4141,"Ġcompos":4142,"rawn":4143,"Ġplays":4144,"Ġattention":4145,"Ġweaken":4146,"oint":4147,"Ġpeace":4148,"Ġentr":4149,"Ġmainly":4150,"Ġefforts":4151,"Ġbecomes":4152,"Ġhouses":4153,"force":4154,"cle":4155,"Ġwit":4156,"Ġpow":4157,"Ġnation":4158,"ĠBalt":4159,"ĠJim":4160,"ĠEmp":4161,"Ġ37":4162,"Ġresidents":4163,"Ġoffer":4164,"ounds":4165,"Ġwebs":4166,"Ġspecim":4167,"Ġsubs":4168,"Ġgrand":4169,"Ġemot":4170,"Ġbrown":4171,"ervation":4172,"Ġstrugg":4173,"shire":4174,"ĠHighway":4175,"Ġvehic":4176,"ĠBraathens":4177,"ging":4178,"rate":4179,"Ġsense":4180,"isl":4181,"Ġlot":4182,"Ġnarr":4183,"ado":4184,"ĠDam":4185,"Ġconsec":4186,"Ġactually":4187,"Ġcalling":4188,"Ġtitles":4189,"Ġmagn":4190,"Ġsoundtrack":4191,"ĠHait":4192,"ufact":4193,"bed":4194,"ware":4195,"Ġtask":4196,"het":4197,"eds":4198,"Ġhair":4199,"ĠDire":4200,"ĠNes":4201,"ellig":4202,"Ġroy":4203,"Ġroles":4204,"Ġseasons":4205,"Ġwrite":4206,"ĠJohnson":4207,"ĠBlue":4208,"ĠAdam":4209,"Ġstruck":4210,"Ġdemonst":4211,"Ġaccepted":4212,"Ġachieved":4213,"Ġcannot":4214,"ĠCourt":4215,"ĠIllino":4216,"uated":4217,"Ġathlet":4218,"Ġwear":4219,"Ġbene":4220,"icip":4221,"Ġlif":4222,"imin":4223,"ĠDem":4224,"ĠCharl":4225,"Ġrecomm":4226,"Ġresc":4227,"Ġinstr":4228,"Ġfamil":4229,"uese":4230,"Ġrespond":4231,"Ġprotein":4232,"Ġviewers":4233,"arent":4234,"Ġvocal":4235,"Ġpractice":4236,"ĠVietnam":4237,"ĠPortuguese":4238,"hood":4239,"onents":4240,"Ġcorn":4241,"Ġcrowd":4242,"Ġfiction":4243,"Ġthous":4244,"Ġbeat":4245,"ĠFey":4246,"aine":4247,"ĠJul":4248,"rial":4249,"appen":4250,"Ġ48":4251,"ĠThunder":4252,"Ġ181":4253,"Ġscient":4254,"Ġelev":4255,"Ġavoid":4256,"Ġprimarily":4257,"Ġsequence":4258,"ĠGovernment":4259,"ĠAcademy":4260,"Ġchem":4261,"itual":4262,"ĠTy":4263,"ĠTod":4264,"Ġlb":4265,"ĠCivil":4266,"ĠGar":4267,"ĠOf":4268,"ĠEr":4269,"essions":4270,"Ġ52":4271,"Ġboard":4272,"Ġspread":4273,"ĠRev":4274,"Ġelected":4275,"Ġ1986":4276,"venue":4277,"Ġinfantry":4278,"Ġowned":4279,"ĠColumb":4280,"Ġtwenty":4281,"Ġcombat":4282,"Ġtypes":4283,"Ġslightly":4284,"ding":4285,"hold":4286,"writ":4287,"Ġsales":4288,"Ġsister":4289,"anes":4290,"Ġmax":4291,"Ġnin":4292,"acher":4293,"ĠRam":4294,"Ġaltern":4295,"ulations":4296,"ĠLand":4297,"Ġplant":4298,"ĠKr":4299,"Ġscale":4300,"Ġoffensive":4301,"Ġsport":4302,"ĠNews":4303,"Ġinches":4304,"ĠEngine":4305,"Ġ150":4306,"Ġexpressed":4307,"Ġconcent":4308,"ĠSpain":4309,"Ġrights":4310,"Ġnortheast":4311,"Ġaffected":4312,"ĠCaptain":4313,"Ġwords":4314,"Ġhorse":4315,"ĠMog":4316,"ĠHorse":4317,"ulpt":4318,"estic":4319,"Ġ34":4320,"Ġrough":4321,"Ġ180":4322,"Ġsculpt":4323,"Ġneigh":4324,"ĠReview":4325,"Ġshowed":4326,"Ġofficer":4327,"aha":4328,"ograph":4329,"Äģd":4330,"ceeded":4331,"cription":4332,"ĠLouis":4333,"ĠGroup":4334,"bury":4335,"uit":4336,"vin":4337,"Ġsout":4338,"Ġspl":4339,"Ġwalk":4340,"Ġpup":4341,"road":4342,"ĠTint":4343,"ĠMal":4344,"ushed":4345,"ĠWels":4346,"ĠGreen":4347,"Ġsuc":4348,"Ġability":4349,"ĠYoung":4350,"Ġthemes":4351,"ledge":4352,"ĠZhou":4353,"Ġcounty":4354,"Ġbattalion":4355,"Ġwindow":4356,"Ġcombined":4357,"ĠSecret":4358,"ĠVaranas":4359,"ĠLittle":4360,"ĠEmpire":4361,"ĠTintin":4362,"ĠWelsh":4363,"ĠVaranasi":4364,"FA":4365,"house":4366,"light":4367,"nh":4368,"Ġfruit":4369,"arrow":4370,"Ġpun":4371,"ingu":4372,"Ġrear":4373,"Ġsust":4374,"ĠThough":4375,"Ġprec":4376,"Ġtitled":4377,"Ġprogress":4378,"ĠAndrew":4379,"Ġcultural":4380,"bitt":4381,"onymous":4382,"Ġincorpor":4383,"Ġcasualties":4384,"ĠNesbitt":4385,"BA":4386,"mun":4387,"Ġsquare":4388,"Ġmountain":4389,"ĠManc":4390,"ĠBurn":4391,"ĠDist":4392,"emic":4393,"umber":4394,"Ġremark":4395,"Ġproduce":4396,"Ġcontinues":4397,"Ġsays":4398,"Ġearliest":4399,"ĠEva":4400,"ironment":4401,"Ġexcav":4402,"ĠOdaen":4403,"ĠAngeles":4404,"Ġmentioned":4405,"Ġancient":4406,"Ġnewspaper":4407,"Ġmurder":4408,"ĠCeres":4409,"Ġrecommend":4410,"ĠOdaenathus":4411,"Mont":4412,"eter":4413,"Ġfully":4414,"Ġinh":4415,"Ġdyn":4416,"Ġhol":4417,"ĠTurn":4418,"ĠSarn":4419,"ĠSpec":4420,"omer":4421,"ĠBook":4422,"ĠHome":4423,"etts":4424,"oses":4425,"Ġchampionship":4426,"Ġmanufact":4427,"Ġactor":4428,"Ġartists":4429,"Ġdistinct":4430,"ĠConf":4431,"ĠCommun":4432,"pedo":4433,"ĠTrans":4434,"Ġresulting":4435,"Ġ1920":4436,"Ġauthorities":4437,"Ġinfluenced":4438,"ĠRecords":4439,"Ġflooding":4440,"ĠDuMont":4441,"ĠOlympic":4442,"Ġcerem":4443,"Ġadopted":4444,"Ġdisease":4445,"ĠSarnia":4446,"ev":4447,"gal":4448,"enant":4449,"Ġmission":4450,"utions":4451,"ĠRad":4452,"Ġreports":4453,"ĠAdd":4454,"ĠOrigin":4455,"Ġbasis":4456,"ĠPerÃ³n":4457,"Ġrepresented":4458,"while":4459,"Ġadvantage":4460,"ĠIllinois":4461,"bird":4462,"nown":4463,"Ġtoward":4464,"Ġhar":4465,"Ġrepe":4466,"ĠBol":4467,"Ġalone":4468,"ĠJos":4469,"ĠOm":4470,"Ġcoming":4471,"ovic":4472,"ĠArg":4473,"Ġassault":4474,"Ġapparent":4475,"Ġdefense":4476,"Ġqual":4477,"Ġgrass":4478,"ĠCont":4479,"helm":4480,"Ġletters":4481,"Ġtower":4482,"ĠApple":4483,"Ġtournament":4484,"ĠThunderbird":4485,"ĠMogad":4486,"ĠManchester":4487,"Ġsides":4488,"nds":4489,"orus":4490,"Ġreign":4491,"Ġreact":4492,"ĠSR":4493,"ĠSal":4494,"imb":4495,"ĠFred":4496,"ĠWash":4497,"Ġexhib":4498,"Ġkakapo":4499,"Ġarmed":4500,"Ġworkers":4501,"Ġrelatively":4502,"ĠDef":4503,"ocks":4504,"Ġfounded":4505,"Ġbridge":4506,"Ġalongside":4507,"Ġoccasion":4508,"Ġnorthwest":4509,"Ġencour":4510,"Ġwithdraw":4511,"Ġtorpedo":4512,"ĠWashington":4513,"lin":4514,"mir":4515,"Ġcadmium":4516,"Ġfa":4517,"room":4518,"Ġlosing":4519,"Ġnest":4520,"Ġnarrow":4521,"ĠPost":4522,"ĠFour":4523,"ĠDou":4524,"Ġattended":4525,"ĠOcean":4526,"Ġyellow":4527,"Ġcontain":4528,"Ġmechan":4529,"Ġ1988":4530,"Ġdirection":4531,"Ġtermin":4532,"Ġofficially":4533,"Ġedition":4534,"Ġtried":4535,"Ġorganized":4536,"Ġcapture":4537,"Ġlegal":4538,"Ġindividuals":4539,"Ġillust":4540,"Ġtransferred":4541,"Ġmess":4542,"Ġmile":4543,"ĠAv":4544,"ĠWay":4545,"osen":4546,"Ġproved":4547,"abama":4548,"eller":4549,"ogue":4550,"Ġperman":4551,"ĠAlabama":4552,"ension":4553,"Ġacting":4554,"Ġeffort":4555,"ĠClark":4556,"ĠProdu":4557,"Ġrequire":4558,"Ġofficials":4559,"Ġmeasure":4560,"Ġphysical":4561,"Ġsurrounding":4562,"Ġdedicated":4563,"ĠMiddle":4564,"ĠOmaha":4565,"AA":4566,"mes":4567,"Ġcandid":4568,"Ġdu":4569,"Ġthir":4570,"Ġlives":4571,"Ġeye":4572,"ĠMD":4573,"Ġstarl":4574,"usion":4575,"Ġrang":4576,"ricult":4577,"Ġenergy":4578,"Ġprin":4579,"Ġdoing":4580,"prise":4581,"Ġemph":4582,"Ġedge":4583,"Ġextr":4584,"Ġconflict":4585,"Ġcouple":4586,"Ġrainfall":4587,"ien":4588,"right":4589,"wen":4590,"ading":4591,"adel":4592,"imore":4593,"ishu":4594,"Ġprepar":4595,"ĠReception":4596,"Ġfollows":4597,"Ġdesignated":4598,"ĠMean":4599,"Ġshortly":4600,"Ġpossibly":4601,"Ġpattern":4602,"Ġdivided":4603,"Ġintensity":4604,"ĠHelms":4605,"Ġfinancial":4606,"ĠMogadishu":4607,"mond":4608,"Ġir":4609,"Ġfaced":4610,"Ġpaid":4611,"Ġhun":4612,"ĠSch":4613,"ols":4614,"ĠHal":4615,"ĠFam":4616,"ĠFant":4617,"ĠLord":4618,"Ġvo":4619,"Ġven":4620,"Ġshape":4621,"Ġyour":4622,"Ġyoun":4623,"Ġ49":4624,"Ġimages":4625,"Ġ65":4626,"Ġalbums":4627,"Ġ1964":4628,"Ġsimply":4629,"Ġwinter":4630,"Ġolder":4631,"ĠEdward":4632,"Ġsociety":4633,"Ġsources":4634,"ĠWilhelm":4635,"Ġdetermined":4636,"ĠInnis":4637,"Ġmaximum":4638,"lied":4639,"mit":4640,"rane":4641,"Ġaid":4642,"Ġple":4643,"ĠCons":4644,"Ġonto":4645,"ĠMax":4646,"ĠBre":4647,"Ġstep":4648,"ĠNC":4649,"Ġrat":4650,"Ġraid":4651,"Ġcomedy":4652,"Ġchief":4653,"Ġplaces":4654,"ĠKent":4655,"orses":4656,"ugby":4657,"ĠIndepend":4658,"Ġbroken":4659,"Ġportion":4660,"Ġbehav":4661,"ĠAssembly":4662,"Ġkept":4663,"Ġfunction":4664,"ĠHistor":4665,"Ġpiece":4666,"Ġdissip":4667,"Ġpotential":4668,"Ġjournal":4669,"uzz":4670,"Ġborder":4671,"ĠJoseph":4672,"Ġemphas":4673,"onna":4674,"Ġsac":4675,"Ġcities":4676,"ental":4677,"igan":4678,"use":4679,"ĠFleet":4680,"ĠJup":4681,"ĠJourn":4682,"Ġunivers":4683,"Ġadvert":4684,"Ġcharge":4685,"Ġmovie":4686,"ĠCommission":4687,"Ġprotect":4688,"Ġargued":4689,"ĠMcCall":4690,"Station":4691,"rid":4692,"Ġwild":4693,"Ġfeder":4694,"Ġfolk":4695,"Ġmind":4696,"Ġthr":4697,"ada":4698,"Ġgrew":4699,"ĠRih":4700,"ĠFer":4701,"Ġheart":4702,"oper":4703,"Ġcontent":4704,"ĠVan":4705,"Ġcolor":4706,"Ġdepth":4707,"Ġsuggests":4708,"Ġauthority":4709,"Ġsites":4710,"Ġprojects":4711,"Ġmanagement":4712,"ĠHamels":4713,"ĠPlayStation":4714,"Ġdomestic":4715,"ĠBaltimore":4716,"ĠArgent":4717,"ĠRihanna":4718,"Ġwor":4719,"Ġwave":4720,"edar":4721,"atops":4722,"Ġpaint":4723,"rown":4724,"Ġdut":4725,"lection":4726,"iled":4727,"acement":4728,"Ġgained":4729,"ĠBowl":4730,"ĠRh":4731,"ĠDest":4732,"ĠGreek":4733,"Ġroll":4734,"Ġscience":4735,"Ġweak":4736,"Ġ64":4737,"Ġprison":4738,"Ġmuseum":4739,"Ġbelong":4740,"Ġdepart":4741,"ĠCommon":4742,"Ġlegisl":4743,"Ġcausing":4744,"Ġtwice":4745,"Ġcriticized":4746,"Ġstructures":4747,"Ġletter":4748,"ĠValley":4749,"Ġtarget":4750,"Ġultimately":4751,"Ġschedul":4752,"Ġentrance":4753,"Ġwebsite":4754,"Ġroyal":4755,"ex":4756,"je":4757,"kare":4758,"lies":4759,"Ġunk":4760,"edkare":4761,"Ġfit":4762,"Ġfung":4763,"ening":4764,"ani":4765,"ĠTru":4766,"ented":4767,"enture":4768,"ĠCra":4769,"Ġvess":4770,"Ġshare":4771,"Ġcontaining":4772,"Ġneut":4773,"Ġformation":4774,"Ġextra":4775,"Ġresults":4776,"ĠWeek":4777,"Ġdebuted":4778,"ĠPalest":4779,"Ġdoub":4780,"Ġhomes":4781,"ĠDjedkare":4782,"ĠJupiter":4783,"mission":4784,"wide":4785,"Ġhospital":4786,"ĠMass":4787,"ĠWrit":4788,"ĠGall":4789,"Ġdeploy":4790,"Ġchosen":4791,"Ġkg":4792,"asty":4793,"claim":4794,"ĠVen":4795,"Ġagg":4796,"Ġdefence":4797,"Ġdefensive":4798,"Ġ1947":4799,"Ġartic":4800,"ĠConstant":4801,"Ġbattles":4802,"Ġforeign":4803,"ĠTorres":4804,"Ġopin":4805,"Ġlabel":4806,"VD":4807,"bour":4808,"Ġcore":4809,"Ġinch":4810,"Ġmouth":4811,"Ġmaster":4812,"ĠSen":4813,"ĠSar":4814,"ĠHib":4815,"ĠHorn":4816,"ĠDVD":4817,"ĠNight":4818,"ĠLis":4819,"ĠLew":4820,"umes":4821,"ĠEastern":4822,"resh":4823,"acks":4824,"ĠKore":4825,"Ġsecurity":4826,"Ġbrigade":4827,"Ġprominent":4828,"Ġstanding":4829,"Ġreference":4830,"Ġfrag":4831,"Ġgrowing":4832,"Ġanimal":4833,"Ġburied":4834,"Ġgranted":4835,"Ġabandoned":4836,"Ġdismiss":4837,"Ġrejected":4838,"Ġconsecutive":4839,"inary":4840,"ĠSil":4841,"ĠFA":4842,"ĠOnce":4843,"ĠAnn":4844,"Ġcolony":4845,"Ġtherefore":4846,"Ġ1941":4847,"Ġvisited":4848,"Ġorganization":4849,"Ġclaims":4850,"Ġtemple":4851,"Ġorders":4852,"Ġcells":4853,"white":4854,"ĠScottish":4855,"ĠForest":4856,"Ġrisk":4857,"ĠApplewhite":4858,"met":4859,"Ġrom":4860,"nding":4861,"Ġmel":4862,"roll":4863,"stone":4864,"ĠLo":4865,"Ġseek":4866,"iana":4867,"ĠChap":4868,"Ġjump":4869,"Ġspot":4870,"Ġremix":4871,"Ġregions":4872,"Ġseconds":4873,"phia":4874,"Ġsingles":4875,"Ġ1987":4876,"ĠShort":4877,"Ġstudent":4878,"Ġminer":4879,"Ġbroke":4880,"ĠAirport":4881,"Ġcondition":4882,"Ġindependent":4883,"Ġwounded":4884,"adelphia":4885,"ML":4886,"mark":4887,"Ġahead":4888,"Ġfix":4889,"isters":4890,"ĠTri":4891,"Ġreaching":4892,"ĠAp":4893,"ĠCam":4894,"ĠBig":4895,"ĠPop":4896,"ĠInstitute":4897,"ĠChild":4898,"Ġintellig":4899,"Ġadj":4900,"Ġenemy":4901,"ĠAtt":4902,"Ġenter":4903,"ertain":4904,"ancy":4905,"Ġversions":4906,"Ġcollect":4907,"Ġplanet":4908,"Ġsolo":4909,"Ġcases":4910,"Ġidentified":4911,"Ġcollabor":4912,"Ġnominated":4913,"Ġseems":4914,"ĠEgyptian":4915,"Ġtemperature":4916,"Ġequipment":4917,"Ġmoment":4918,"ĠBackground":4919,"ech":4920,"Ġaired":4921,"Ġbott":4922,"Ġmales":4923,"ĠSAF":4924,"ĠBBC":4925,"ims":4926,"ĠFurther":4927,"ĠDue":4928,"Ġconver":4929,"Ġheight":4930,"ĠUs":4931,"Ġunique":4932,"Ġ53":4933,"Ġnewly":4934,"Ġelement":4935,"Ġ120":4936,"Ġ1984":4937,"Ġ1989":4938,"Ġ1972":4939,"Ġreturning":4940,"Ġsupporting":4941,"ĠBefore":4942,"Ġcampus":4943,"Ġopposed":4944,"Ġknowledge":4945,"Ġproblem":4946,"ĠCroatia":4947,"ĠSAFE":4948,"uous":4949,"Ġtur":4950,"rete":4951,"Ġwa":4952,"Ġfle":4953,"Ġfear":4954,"Ġfired":4955,"Ġdress":4956,"iles":4957,"ĠMike":4958,"ĠBir":4959,"ety":4960,"ĠGood":4961,"ĠLock":4962,"ĠEach":4963,"ocated":4964,"astic":4965,"Ġteacher":4966,"Ġweight":4967,"Ġinterp":4968,"Ġ1985":4969,"ĠIndust":4970,"Ġoperated":4971,"Ġlooking":4972,"Ġincreasingly":4973,"Ġliterature":4974,"Ġconnect":4975,"ĠOperation":4976,"Ġanalysis":4977,"Ġunknown":4978,"bon":4979,"iate":4980,"Ġtun":4981,"Ġtheory":4982,"Ġcouncil":4983,"asters":4984,"igg":4985,"ĠHMS":4986,"ĠPo":4987,"ĠField":4988,"ĠLar":4989,"Ġhere":4990,"Ġshr":4991,"Ġcompr":4992,"Ġwrites":4993,"Ġdefin":4994,"Ġbelieve":4995,"Ġexplained":4996,"Ġbreeding":4997,"Ġcommonly":4998,"ĠBarrow":4999,"Ġhistorian":5000,"Ġideas":5001,"Ġburns":5002,"ĠCardiff":5003,"Ġsettlement":5004,"Ġenvironment":5005,"Ġconfirmed":5006,"mosp":5007,"Ġox":5008,"Ġoil":5009,"atch":5010,"orter":5011,"Ġcricket":5012,"Ġbud":5013,"ĠSum":5014,"ĠMore":5015,"Ġstations":5016,"ĠPublic":5017,"ĠRA":5018,"Ġalter":5019,"Ġatmosp":5020,"ĠOx":5021,"ortal":5022,"Ġarrest":5023,"Ġherself":5024,"Ġperfect":5025,"Ġ55":5026,"ibr":5027,"ĠOnly":5028,"Ġconsisted":5029,"hips":5030,"Ġsinging":5031,"Ġ1944":5032,"Ġadvanced":5033,"Ġsystems":5034,"Ġphil":5035,"Ġfemales":5036,"ĠMichigan":5037,"ĠPhiladelphia":5038,"Ġproperty":5039,"Ġeconomic":5040,"Ġscholars":5041,"Ġcontrolled":5042,"ĠEntertain":5043,"Ġmolec":5044,"yes":5045,"Ġfast":5046,"Ġfox":5047,"alions":5048,"Ġparliament":5049,"Ġmount":5050,"Ġhappen":5051,"ĠMounted":5052,"ĠNorm":5053,"ĠNever":5054,"ĠJon":5055,"Ġdeities":5056,"odon":5057,"ĠEven":5058,"Ġmaintained":5059,"Ġgrowth":5060,"ĠKeats":5061,"appy":5062,"ĠSwed":5063,"Ġdevot":5064,"Ġstrengt":5065,"Ġpieces":5066,"Ġfailure":5067,"Ġdropped":5068,"Ġkilomet":5069,"ĠMeanwhile":5070,"tav":5071,"Ġawards":5072,"Ġsens":5073,"isation":5074,"Ġpan":5075,"ĠBon":5076,"ĠDutch":5077,"istry":5078,"Ġcompar":5079,"ĠAlbum":5080,"ĠArm":5081,"Ġfilmed":5082,"Ġcreation":5083,"Ġlandfall":5084,"ĠCarl":5085,"ĠClass":5086,"Ġkilling":5087,"Ġfreeway":5088,"ĠWilliams":5089,"Ġpitched":5090,"ĠMorr":5091,"Ġstrike":5092,"Ġhonor":5093,"Ġflying":5094,"Ġinjury":5095,"ĠAddition":5096,"aling":5097,"Ġmounted":5098,"Ġhorses":5099,"ĠBan":5100,"Ġconne":5101,"ĠNathan":5102,"agan":5103,"ĠJur":5104,"ighth":5105,"Ġextend":5106,"Ġtry":5107,"ieval":5108,"Ġ43":5109,"Ġresemb":5110,"Ġboats":5111,"ĠItaly":5112,"Ġserve":5113,"Ġspeak":5114,"Ġ600":5115,"Ġretired":5116,"Ġactress":5117,"airs":5118,"Ġexped":5119,"ĠAndy":5120,"Ġbelief":5121,"Ġhumans":5122,"ĠSteve":5123,"Ġpromoted":5124,"Ġvalue":5125,"urban":5126,"ĠCongress":5127,"ĠPrem":5128,"Ġrapidly":5129,"Ġbattery":5130,"Ġweapons":5131,"lers":5132,"sw":5133,"Ġselling":5134,"Ġbid":5135,"Ġpict":5136,"stream":5137,"Ġstra":5138,"Ġ56":5139,"Ġimag":5140,"Ġweather":5141,"ĠAmericans":5142,"Ġinvasion":5143,"ĠConference":5144,"Ġpasses":5145,"Ġpassing":5146,"Ġpublication":5147,"ĠMinister":5148,"ĠAbu":5149,"Ġsignificantly":5150,"Ġcougar":5151,"Ġreligion":5152,"Ġpromotion":5153,"Ġrecognized":5154,"Ġcreating":5155,"Ġconnected":5156,"Ġsemi":5157,"Ġpremi":5158,"Ġprepared":5159,"Ġdescription":5160,"Ġmultiple":5161,"Ġfederal":5162,"Ġstraight":5163,"Le":5164,"haps":5165,"more":5166,"pass":5167,"uge":5168,"Ġast":5169,"Ġsought":5170,"itch":5171,"Ġbats":5172,"asure":5173,"Ġdata":5174,"oured":5175,"ĠSor":5176,"oty":5177,"ĠFinal":5178,"ĠGord":5179,"Ġchose":5180,"ĠVideo":5181,"ampion":5182,"Ġcolumn":5183,"ĠDevelop":5184,"Ġleader":5185,"Ġfamous":5186,"Ġmatter":5187,"Ġrestaur":5188,"ĠGuard":5189,"Ġdeliver":5190,"Ġpopularity":5191,"arrison":5192,"Ġprotest":5193,"Ġproducers":5194,"Ġvolume":5195,"Ġwalls":5196,"Ġregarded":5197,"Ġseventh":5198,"Ġaspects":5199,"Ġnecessary":5200,"Ġscheduled":5201,"gn":5202,"uild":5203,"Ġsand":5204,"Ġcust":5205,"ano":5206,"Ġreaction":5207,"Ġlaid":5208,"ĠMatt":5209,"ĠPet":5210,"ĠRog":5211,"Ġconvers":5212,"ersey":5213,"agement":5214,"Ġrise":5215,"ella":5216,"Ġ46":5217,"Ġagricult":5218,"Ġspect":5219,"icks":5220,"amese":5221,"Ġflank":5222,"Ġ1981":5223,"Ġstarts":5224,"Ġlanding":5225,"Ġguest":5226,"heless":5227,"Ġaccompan":5228,"ĠVietnamese":5229,"ĠJeff":5230,"Ġnucleus":5231,"Ġsustained":5232,"eer":5233,"Ġtim":5234,"Ġtact":5235,"Ġfought":5236,"isy":5237,"Ġdated":5238,"ĠCamb":5239,"Ġbeaut":5240,"Ġge":5241,"ĠBost":5242,"ĠHart":5243,"ĠHaven":5244,"ulate":5245,"ĠGulf":5246,"Ġrival":5247,"ĠStan":5248,"ieut":5249,"izing":5250,"ographer":5251,"Ġdelay":5252,"ĠAmong":5253,"Ġcastle":5254,"Ġstrik":5255,"Ġcurrently":5256,"Ġemployed":5257,"clusion":5258,"Ġfamilies":5259,"ĠThunderbirds":5260,"Ġphilos":5261,"ĠCambod":5262,"che":5263,"crib":5264,"ees":5265,"heastern":5266,"inity":5267,"Ġouter":5268,"ĠAthlet":5269,"omy":5270,"ads":5271,"ĠLine":5272,"Ġrating":5273,"Ġvirt":5274,"apt":5275,"appe":5276,"Ġtrain":5277,"Ġcontained":5278,"Ġarms":5279,"Ġ41":5280,"ansion":5281,"Ġ700":5282,"Ġunderground":5283,"Ġends":5284,"Ġsupply":5285,"Ġ1939":5286,"Ġprompt":5287,"Ġdrive":5288,"Ġtrial":5289,"Ġphase":5290,"Ġfacilities":5291,"ĠSlam":5292,"Ġfrequently":5293,"Ġbudget":5294,"RA":5295,"lines":5296,"rain":5297,"Ġtree":5298,"Ġsave":5299,"itable":5300,"Ġfict":5301,"Ġbank":5302,"Ġdrop":5303,"Ġreform":5304,"ĠSat":5305,"ĠChe":5306,"iring":5307,"ĠFestival":5308,"ĠNaz":5309,"ĠGi":5310,"ĠGirl":5311,"ĠLes":5312,"ĠOp":5313,"ĠUl":5314,"Ġcontact":5315,"Ġcontributed":5316,"Ġunus":5317,"Ġspring":5318,"ĠAnth":5319,"Ġactors":5320,"orney":5321,"Ġ1942":5322,"insula":5323,"Ġallows":5324,"Ġreflect":5325,"Ġcollected":5326,"ĠPho":5327,"Ġfinds":5328,"Ġnegative":5329,"Ġexecutive":5330,"rupt":5331,"Ġsilver":5332,"Ġclean":5333,"Ġdegree":5334,"ĠRevolution":5335,"Ġbottom":5336,"ĠOxford":5337,"ĠGordon":5338,"yond":5339,"onent":5340,"Ġsen":5341,"Ġcited":5342,"Ġfresh":5343,"standing":5344,"amic":5345,"Ġbeyond":5346,"olved":5347,"ĠFriend":5348,"ĠDen":5349,"ĠNBA":5350,"aved":5351,"ĠEnd":5352,"illo":5353,"Ġshaped":5354,"Ġcomputer":5355,"angers":5356,"ĠSha":5357,"Ġopera":5358,"Ġ130":5359,"Ġ1918":5360,"ĠUSA":5361,"Ġeffective":5362,"Ġentirely":5363,"Ġanimals":5364,"Ġimproved":5365,"Ġsubsequent":5366,"ĠCoast":5367,"ĠStudios":5368,"ĠBetween":5369,"ĠTurner":5370,"ĠCrazy":5371,"ĠEntertainment":5372,"ĠPremier":5373,"ieutenant":5374,"uccess":5375,"Ġbow":5376,"alle":5377,"asc":5378,"Ġmob":5379,"Ġdraft":5380,"Ġgain":5381,"Ġgives":5382,"thur":5383,"ĠWork":5384,"ĠObs":5385,"Ġnotable":5386,"Ġrecently":5387,"Ġ54":5388,"ansas":5389,"ĠMario":5390,"ropium":5391,"Ġ1968":5392,"Ġ1969":5393,"Ġexpress":5394,"Ġsimple":5395,"ashion":5396,"Ġextensive":5397,"ĠMuslim":5398,"Ġmedical":5399,"ĠBoise":5400,"Ġfinding":5401,"ushing":5402,"Ġgradually":5403,"ĠToday":5404,"ĠLewis":5405,"Ġkilometres":5406,"ĠBoston":5407,"cy":5408,"Ġdates":5409,"Ġegg":5410,"ĠCold":5411,"ĠChel":5412,"iments":5413,"Ġstages":5414,"ĠPen":5415,"ĠDer":5416,"ĠGard":5417,"ĠJain":5418,"sea":5419,"Ġ57":5420,"Ġfinals":5421,"Ġsecondary":5422,"ocked":5423,"ĠLeg":5424,"Ġsevere":5425,"Ġ179":5426,"Ġ1975":5427,"Ġexpanded":5428,"azz":5429,"Ġserving":5430,"ĠPeople":5431,"Ġantimony":5432,"Ġprograms":5433,"ĠRussian":5434,"ĠMartin":5435,"cel":5436,"ki":5437,"rong":5438,"Ġtail":5439,"unte":5440,"Ġcamer":5441,"ishes":5442,"Ġbit":5443,"Ġham":5444,"ĠSo":5445,"stead":5446,"ĠCre":5447,"ĠCole":5448,"ĠRail":5449,"Ġitems":5450,"ĠGreg":5451,"ĠJes":5452,"Ġcomes":5453,"ĠKey":5454,"Ġcomposition":5455,"Ġboat":5456,"weet":5457,"Ġcenturies":5458,"Ġ800":5459,"Ġ1965":5460,"Ġ1974":5461,"Ġoccas":5462,"ĠEvita":5463,"Ġcorre":5464,"ĠMagazine":5465,"ĠSystem":5466,"Ġoccupied":5467,"ĠTurk":5468,"ĠUpon":5469,"ĠDemocr":5470,"iations":5471,"ero":5472,"Ġwed":5473,"unction":5474,"unicip":5475,"Ġmo":5476,"Ġmig":5477,"icc":5478,"Ġdaily":5479,"ĠSund":5480,"Ġnaval":5481,"ura":5482,"urches":5483,"ĠId":5484,"ĠDomin":5485,"Ġchair":5486,"berg":5487,"udd":5488,"rence":5489,"oys":5490,"Ġfloor":5491,"Ġsole":5492,"Ġmush":5493,"hess":5494,"Ġdecades":5495,"ancing":5496,"ĠJuan":5497,"Ġdeaths":5498,"Ġcriticism":5499,"Ġfarm":5500,"Ġsuccessfully":5501,"Ġlosses":5502,"Ã¡nh":5503,"ĠCommander":5504,"Ġtreatment":5505,"ĠKhÃ¡nh":5506,"Ġslowly":5507,"Ġindependence":5508,"Ġcommissioned":5509,"Ġexperienced":5510,"Äģda":5511,"Ġfictional":5512,"kin":5513,"ket":5514,"ux":5515,"inem":5516,"Ġsquad":5517,"Ġod":5518,"Ġdial":5519,"ĠAvenue":5520,"aming":5521,"ĠRy":5522,"ĠRome":5523,"ĠFox":5524,"uli":5525,"ĠKir":5526,"ĠStone":5527,"Ġrow":5528,"ĠBridge":5529,"anny":5530,"Ġdidn":5531,"Ġvisual":5532,"Ġsentence":5533,"Ġpersonnel":5534,"Ġengaged":5535,"Ġmyth":5536,"ĠSongs":5537,"ĠCrown":5538,"ĠMacLe":5539,"Ġpurchased":5540,"ĠJamal":5541,"Ġpolicy":5542,"ĠDaniel":5543,"Ġfaith":5544,"ĠJurc":5545,"TC":5546,"hat":5547,"yson":5548,"Ġbass":5549,"iced":5550,"Ġec":5551,"lywood":5552,"lyss":5553,"ĠBart":5554,"ĠBrian":5555,"ĠDo":5556,"ĠLl":5557,"Ġchorus":5558,"Ġunp":5559,"ĠAlf":5560,"Ġsports":5561,"Ġprefer":5562,"Ġ96":5563,"Ġcoal":5564,"Ġcool":5565,"Ġ164":5566,"ĠScience":5567,"Ġ1946":5568,"ĠIsab":5569,"Ġconcrete":5570,"Ġsouthwest":5571,"Ġworldwide":5572,"ĠProv":5573,"Ġcaptain":5574,"Ġpropos":5575,"Ġdeclined":5576,"Ġprotagon":5577,"Ġbegun":5578,"Ġreasons":5579,"Ġnegot":5580,"borough":5581,"ategory":5582,"Ġbriefly":5583,"Ġattract":5584,"ĠTennyson":5585,"Ġchalleng":5586,"ĠThroughout":5587,"ĠDistrict":5588,"bl":5589,"fort":5590,"pet":5591,"Ġfat":5592,"Ġdrawn":5593,"Ġeas":5594,"Ġbeach":5595,"ĠMic":5596,"ĠDubl":5597,"ĠNH":5598,"Ġexclus":5599,"ĠUN":5600,"ĠKn":5601,"Ġnote":5602,"ĠVill":5603,"perial":5604,"ĠAlso":5605,"Ġ73":5606,"Ġ95":5607,"Ġflag":5608,"Ġmoves":5609,"Ġnothing":5610,"Ġincident":5611,"Ġconcer":5612,"ĠProject":5613,"Ġorganiz":5614,"Ġimportance":5615,"Ġroads":5616,"Ġelimin":5617,"ĠBarb":5618,"ĠSimone":5619,"Ġescape":5620,"ĠLiu":5621,"uccessful":5622,"ĠDublin":5623,"iro":5624,"iences":5625,"rang":5626,"Ġ#":5627,"Ġworship":5628,"Ġfur":5629,"Ġhired":5630,"Ġrend":5631,"Ġnor":5632,"ĠCy":5633,"ĠCub":5634,"ĠIgu":5635,"ĠBru":5636,"Ġstreet":5637,"ĠHy":5638,"ĠDun":5639,"ĠLiber":5640,"quake":5641,"ĠKa":5642,"ĠKang":5643,"Ġarc":5644,"ĠHead":5645,"aret":5646,"Ġtend":5647,"Ġ61":5648,"Ġfoundation":5649,"Ġdecade":5650,"Ġlongest":5651,"Ġ1966":5652,"Ġ1952":5653,"Ġ1919":5654,"Ġpossibility":5655,"Ġarrival":5656,"ĠProt":5657,"Ġfavour":5658,"Ġhyd":5659,"chers":5660,"Ġbillion":5661,"Ġchapter":5662,"Ġparticipated":5663,"Ġcalc":5664,"Ġfirm":5665,"Ġenjoyed":5666,"ĠArea":5667,"ĠTemple":5668,"Ġwitness":5669,"Ġresponded":5670,"ĠProduction":5671,"ĠFamily":5672,"Ġpaintings":5673,"Ġaccompanied":5674,"Ġtall":5675,"Ġtheat":5676,"Ġwides":5677,"Ġpul":5678,"Ġmist":5679,"Ġlabor":5680,"ĠMem":5681,"Ġgas":5682,"ĠBas":5683,"Ġstret":5684,"ayer":5685,"ĠRet":5686,"ĠFive":5687,"ĠGA":5688,"Ġheard":5689,"ĠEll":5690,"apes":5691,"ĠUlyss":5692,"iance":5693,"ĠChart":5694,"ĠChains":5695,"ĠAli":5696,"izes":5697,"Ġneck":5698,"Ġ97":5699,"ĠMaria":5700,"Ġapplic":5701,"Ġsetting":5702,"Ġsurre":5703,"Ġdeveloping":5704,"Ġ177":5705,"Ġowners":5706,"Ġ1936":5707,"Ġguard":5708,"Ġoldest":5709,"Ġglob":5710,"Ġagreement":5711,"ĠGovernor":5712,"Ġdollar":5713,"Ġnormal":5714,"Ġplatform":5715,"Ġroughly":5716,"ĠDevelopment":5717,"Ġsenior":5718,"ĠMacLeod":5719,"ĠUlysses":5720,"chest":5721,"iable":5722,"ls":5723,"pread":5724,"Ġhor":5725,"ĠAer":5726,"ĠCD":5727,"ĠMur":5728,"Ġgreen":5729,"ĠBand":5730,"ĠBaby":5731,"ĠRon":5732,"ĠFall":5733,"ĠEs":5734,"istan":5735,"ĠInstead":5736,"Ġchoice":5737,"Ġremn":5738,"Ġconsists":5739,"Ġvert":5740,"Ġacad":5741,"Ġaccident":5742,"Ġadding":5743,"Ġpopulations":5744,"Ġ1973":5745,"ĠIsl":5746,"ĠAdmir":5747,"Ġlasted":5748,"Ġtrip":5749,"ĠBoard":5750,"Ġcombination":5751,"Ġskin":5752,"Ġtechnology":5753,"Ġexistence":5754,"Ġregarding":5755,"Ġviolence":5756,"Ġpoetry":5757,"Ġdominated":5758,"ĠFrancisc":5759,"Ġathletes":5760,"ĠDougl":5761,"ĠAnthony":5762,"ĠTurkish":5763,"iot":5764,"rem":5765,"Ġsn":5766,"eda":5767,"ĠSus":5768,"Ġeth":5769,"adow":5770,"ĠTheatre":5771,"ĠMat":5772,"ĠMod":5773,"iday":5774,"usal":5775,"Ġisol":5776,"ager":5777,"umpt":5778,"Ġcomic":5779,"antly":5780,"gend":5781,"Ġreserv":5782,"Ġspons":5783,"Ġcommittee":5784,"Ġfilming":5785,"Ġacres":5786,"Ġapplied":5787,"Ġsubmar":5788,"Ġcalls":5789,"Ġperforming":5790,"Ġ1967":5791,"ĠTeam":5792,"Ġcollege":5793,"Ġclubs":5794,"Ġcompetitions":5795,"Ġassociation":5796,"Ġclosely":5797,"Ġresear":5798,"Ġexisting":5799,"Ġunsuccessful":5800,"Ġhabitat":5801,"Ġweakened":5802,"ĠIguan":5803,"come":5804,"rum":5805,"Ġaer":5806,"era":5807,"aton":5808,"isers":5809,"aser":5810,"ĠAston":5811,"ĠMov":5812,"ĠMountain":5813,"Ġaltar":5814,"resp":5815,"Ġperhaps":5816,"Ġoverl":5817,"Ġneither":5818,"Ġ62":5819,"ĠMarl":5820,"Ġundert":5821,"Ġinteract":5822,"Ġappeal":5823,"Ġdecre":5824,"Ġcapable":5825,"Ġtransit":5826,"Ġ110":5827,"Ġdistingu":5828,"Ġprovides":5829,"Ġ1914":5830,"Ġbattalions":5831,"Ġserves":5832,"Ġgreatly":5833,"ĠPhill":5834,"Ġdetails":5835,"Ġpainting":5836,"Ġarchaeological":5837,"Ġderived":5838,"Ġlearned":5839,"Ġtells":5840,"Ġreinforce":5841,"Ġpilot":5842,"Ġpurpose":5843,"Ġadministration":5844,"Ġopportunity":5845,"Ġbenef":5846,"Ġceremony":5847,"Ġoccasionally":5848,"aver":5849,"ection":5850,"set":5851,"Ġsort":5852,"Ġfellow":5853,"Ġbought":5854,"Ġdance":5855,"Ġthing":5856,"ĠAri":5857,"ĠAML":5858,"Ġones":5859,"ĠMen":5860,"ĠBishop":5861,"ĠDota":5862,"ĠGab":5863,"Ġseat":5864,"opes":5865,"ichol":5866,"Ġchurches":5867,"Ġcontrib":5868,"Ġreconst":5869,"ĠAlbert":5870,"Ġdescend":5871,"ibbe":5872,"Ġspeaking":5873,"ĠAnonymous":5874,"Ġ85":5875,"Ġsupposed":5876,"Ġsurvey":5877,"pring":5878,"Ġinvited":5879,"Ġreceiving":5880,"ĠCaribbe":5881,"Ġeditor":5882,"Ġheaded":5883,"ĠAdv":5884,"Ġstoryline":5885,"Ġbasket":5886,"Ġtowns":5887,"Ġparalle":5888,"Ġtechnique":5889,"Ġsufficient":5890,"Ġencounter":5891,"ĠOde":5892,"ĠBraz":5893,"Ġinnings":5894,"Ġfilled":5895,"Ġvehicles":5896,"Ġdissipated":5897,"ĠHornung":5898,"ĠChelsea":5899,"ĠDouglas":5900,"ĠCaribbean":5901,"uate":5902,"Ġut":5903,"Ġton":5904,"inner":5905,"erc":5906,"Ġsom":5907,"ato":5908,"Ġfashion":5909,"Ġdrew":5910,"amy":5911,"lying":5912,"ules":5913,"ĠLife":5914,"ĠLieutenant":5915,"Ġseg":5916,"ĠERA":5917,"Ġplum":5918,"ĠKenn":5919,"ĠStew":5920,"ĠStep":5921,"Ġ71":5922,"ĠAsia":5923,"ĠLeon":5924,"Ġdoor":5925,"Ġgoes":5926,"Ġ1945":5927,"Ġ1971":5928,"Ġbranch":5929,"Ġreceive":5930,"Ġdepict":5931,"Ġanything":5932,"pective":5933,"Ġclassified":5934,"ographic":5935,"Ġviewed":5936,"ĠPerry":5937,"ĠGeorg":5938,"ĠAbout":5939,"Ġislands":5940,"Ġtypical":5941,"Ġsurvived":5942,"ÃŃa":5943,"Ġmassive":5944,"Ġaccompl":5945,"ĠCardinal":5946,"Ġstopped":5947,"ĠMaeda":5948,"ructure":5949,"Ġdrama":5950,"Ġsymbol":5951,"ĠConstantine":5952,"ĠHibari":5953,"ĠSummer":5954,"Ġastron":5955,"Ġwidespread":5956,"hu":5957,"pson":5958,"ruli":5959,"win":5960,"Ġaim":5961,"Ġsail":5962,"Ġcrop":5963,"arian":5964,"ala":5965,"ications":5966,"ĠAge":5967,"ĠMTV":5968,"uting":5969,"Ġwhy":5970,"ĠRol":5971,"ĠRod":5972,"agle":5973,"Ġring":5974,"Ġrif":5975,"Ġshared":5976,"Ġtruth":5977,"Ġtrying":5978,"usted":5979,"rait":5980,"Ġ59":5981,"Ġflights":5982,"Ġassass":5983,"Ġacid":5984,"Ġquot":5985,"Ġpoly":5986,"Ġ1982":5987,"ĠWhat":5988,"Ġdistrict":5989,"ĠConst":5990,"ĠQedar":5991,"Ġprotection":5992,"Ġauthors":5993,"ĠBrook":5994,"ĠRomani":5995,"ĠGeorgian":5996,"ĠSimon":5997,"ĠStev":5998,"Ġhousehold":5999,"Ġmissing":6000,"Ġmotion":6001,"ĠGolden":6002,"glades":6003,"Ġsynt":6004,"Ġsettlers":6005,"Ġacquired":6006,"Ġdigital":6007,"Ġsafety":6008,"Ġsoutheast":6009,"Ġrepeated":6010,"ĠFantasy":6011,"Ġconverted":6012,"ibrary":6013,"ati":6014,"Ġha":6015,"ĠTra":6016,"entially":6017,"ĠBond":6018,"ĠBull":6019,"idges":6020,"utation":6021,"ĠRio":6022,"ĠFre":6023,"ĠJud":6024,"iston":6025,"ĠIng":6026,"essed":6027,"ĠUr":6028,"ips":6029,"ĠStadium":6030,"uble":6031,"Ġroutes":6032,"Ġroof":6033,"Ġspacing":6034,"Ġfinish":6035,"Ġevac":6036,"issance":6037,"Ġsubstant":6038,"cki":6039,"Ġlocations":6040,"Ġ160":6041,"Ġ1976":6042,"Ġdepicted":6043,"Ġ1956":6044,"Ġ1913":6045,"Ġ1916":6046,"Ġturns":6047,"Ġexperiment":6048,"Ġplanning":6049,"Ġwatched":6050,"Ġholding":6051,"Ġbaseball":6052,"Ġfunding":6053,"Ġfocused":6054,"ĠOslo":6055,"ĠMoz":6056,"Ġarranged":6057,"ĠHaiti":6058,"Ġsucceeded":6059,"ĠRadio":6060,"ĠFreder":6061,"Ġpermanent":6062,"Ġopinion":6063,"ĠShortly":6064,"Ġatmosphere":6065,"Ġwedding":6066,"VN":6067,"ture":6068,"tty":6069,"Ġi":6070,"Ġign":6071,"inn":6072,"Ġfuel":6073,"Ġbul":6074,"Ġbowl":6075,"Ġindu":6076,"Ġdub":6077,"ĠTim":6078,"ĠCa":6079,"acity":6080,"ĠRow":6081,"ĠJones":6082,"ĠOh":6083,"Ġcho":6084,"Ġchance":6085,"Ġchannel":6086,"Ġexact":6087,"iege":6088,"Ġresident":6089,"Ġ72":6090,"Ġknew":6091,"Ġ81":6092,"Ġdefined":6093,"ifications":6094,"Ġ1943":6095,"Ġ175":6096,"Ġproviding":6097,"ĠAllied":6098,"Ġiniti":6099,"Ġreality":6100,"bridge":6101,"Ġdecline":6102,"Ġcorresp":6103,"idden":6104,"Ġcreator":6105,"Ġpenalty":6106,"Ġearthquake":6107,"Ġcredited":6108,"hetic":6109,"ĠVenus":6110,"ĠIguanodon":6111,"ĠBrazil":6112,"Ġcorrespond":6113,"GN":6114,"eed":6115,"ky":6116,"uan":6117,"Ġtied":6118,"indu":6119,"Ġwins":6120,"Ġinner":6121,"Ġmic":6122,"Ġdating":6123,"ĠAst":6124,"stances":6125,"Ġeu":6126,"ĠIGN":6127,"ivered":6128,"ĠHindu":6129,"ĠRangers":6130,"ĠDream":6131,"ĠGully":6132,"ĠLenn":6133,"agre":6134,"Ġrich":6135,"okes":6136,"Ġjack":6137,"Ġpregn":6138,"ĠArts":6139,"Ġ94":6140,"awa":6141,"Ġcharter":6142,"Ġflu":6143,"Ġassemb":6144,"Ġgrav":6145,"Ġsupplies":6146,"Ġ1963":6147,"Ġ112":6148,"Ġdownlo":6149,"Ġairport":6150,"Ġheads":6151,"Ġ250":6152,"Ġways":6153,"Ġexplos":6154,"Ġdelivered":6155,"Ġlaws":6156,"Ġglass":6157,"Ġseparated":6158,"Ġrenamed":6159,"ĠEverglades":6160,"Ġthousands":6161,"ĠSecretary":6162,"ĠMorrison":6163,"ĠAdditionally":6164,"uilding":6165,"ĠPhoen":6166,"ĠStevens":6167,"Å¡":6168,"Ġice":6169,"inated":6170,"Ġwick":6171,"Ġcit":6172,"itan":6173,"isf":6174,"Ġeyes":6175,"ĠBh":6176,"ĠHomer":6177,"ĠRun":6178,"anda":6179,"ĠGre":6180,"ĠGram":6181,"ĠLuc":6182,"estone":6183,"Ġrac":6184,"Ġrural":6185,"sey":6186,"ĠUTC":6187,"iece":6188,"Ġrose":6189,"outs":6190,"Ġteaching":6191,"Ġoverse":6192,"Ġsecure":6193,"Ġregime":6194,"Ġemperor":6195,"Ġ176":6196,"ĠAustralians":6197,"ĠCommittee":6198,"Ġturning":6199,"Ġcommanded":6200,"Ġopposition":6201,"ĠBroad":6202,"ĠSimilar":6203,"Ġcertified":6204,"Ġinspir":6205,"Ġremainder":6206,"Ġindicate":6207,"ĠOffice":6208,"Ġconsisting":6209,"ĠHollywood":6210,"ĠBradford":6211,"ĠArchae":6212,"ĠAlexander":6213,"Ġinstrument":6214,"ĠColumbia":6215,"Ġsplit":6216,"ĠFriends":6217,"ĠSunday":6218,"BS":6219,"RE":6220,"gÃ©":6221,"jillo":6222,"pany":6223,"rons":6224,"Ġurban":6225,"Ġaware":6226,"Ġdog":6227,"Ġdru":6228,"ĠSap":6229,"Ġeld":6230,"ĠCle":6231,"igation":6232,"ĠHoly":6233,"ĠPers":6234,"ĠPatt":6235,"ĠNative":6236,"ĠGang":6237,"ĠLy":6238,"Ġattached":6239,"Ġ77":6240,"ĠMarine":6241,"Ġcolour":6242,"Ġnoisy":6243,"Ġquite":6244,"ologists":6245,"Ġhighlight":6246,"Ġaddress":6247,"Ġ1978":6248,"Ġoccurs":6249,"Ġ1953":6250,"Ġcourts":6251,"Ġreferences":6252,"Ġaffect":6253,"Ġtechnical":6254,"Ġvalley":6255,"Ġrevolution":6256,"ĠMaryland":6257,"Ġeconomy":6258,"Ġestablishment":6259,"Ġassistance":6260,"ĠMontana":6261,"Ġjourney":6262,"ĠCroatian":6263,"ĠCritical":6264,"Ġpowers":6265,"ĠDirector":6266,"ĠTrujillo":6267,"Ġdrug":6268,"lik":6269,"ĪĴ":6270,"Ġtable":6271,"inosaur":6272,"Ġpet":6273,"Ġdry":6274,"ilton":6275,"Ġlin":6276,"ela":6277,"ĠBern":6278,"ider":6279,"ĠHan":6280,"ĠDown":6281,"apers":6282,"ewhere":6283,"ighter":6284,"aked":6285,"ĠâĪĴ":6286,"Ġleaves":6287,"ĠChronic":6288,"Ġresist":6289,"ĠAlan":6290,"ressive":6291,"Ġfinishing":6292,"issipp":6293,"ĠArthur":6294,"Ġinterior":6295,"Ġstudied":6296,"Ġleads":6297,"Ġdisturb":6298,"Ġdistribution":6299,"Ġreputation":6300,"Ġsuccessor":6301,"ĠRoxas":6302,"Ġviews":6303,"ivalent":6304,"ĠMississipp":6305,"Ġsurviv":6306,"Ġproducing":6307,"Ġmissions":6308,"ĠWalter":6309,"Ġdenied":6310,"Ġadapted":6311,"Ġshooting":6312,"Ġmethods":6313,"Ġportrayed":6314,"ĠCharlie":6315,"ĠEngineer":6316,"Ġstrengthen":6317,"ĠMississippi":6318,"ych":6319,"Ġsle":6320,"Ġhall":6321,"ĠSub":6322,"Ġlane":6323,"uration":6324,"ĠBur":6325,"ĠRel":6326,"ĠWind":6327,"andy":6328,"ĠLow":6329,"agues":6330,"Ġrub":6331,"rier":6332,"ifying":6333,"Ġsud":6334,"ardo":6335,"Ġkits":6336,"ĠKil":6337,"Ġrob":6338,"Ġoffense":6339,"Ġupd":6340,"Ġprey":6341,"Ġgameplay":6342,"Ġentry":6343,"Ġentering":6344,"Ġmaintain":6345,"Ġcharacteristics":6346,"Ġ1915":6347,"Ġcamps":6348,"Ġprotected":6349,"Ġcrime":6350,"ĠWithin":6351,"Ġpolitics":6352,"Ġgetting":6353,"ĠRecording":6354,"ĠActivision":6355,"ĠHoward":6356,"Ġimmig":6357,"senal":6358,"ĠSamuel":6359,"Ġworst":6360,"Ġdismissed":6361,"Ġintelligence":6362,"OT":6363,"SB":6364,"born":6365,"hi":6366,"kins":6367,"Ġcrown":6368,"Ġpuzz":6369,"ĠSnow":6370,"ador":6371,"ĠMul":6372,"Ġstones":6373,"ĠHon":6374,"ĠHug":6375,"ette":6376,"ĠRidge":6377,"osa":6378,"ĠLu":6379,"ĠJac":6380,"ĠJay":6381,"ĠEdu":6382,"Ġvon":6383,"Ġexerc":6384,"Ġnoting":6385,"ipl":6386,"ells":6387,"Ġattributed":6388,"Ġknots":6389,"Ġ98":6390,"ĠMarsh":6391,"Ġcharges":6392,"ropri":6393,"Ġcapacity":6394,"Ġmonarch":6395,"Ġmonument":6396,"ĠPlunk":6397,"Ġclasses":6398,"Ġreplace":6399,"Ġbasin":6400,"Ġfranch":6401,"Ġnovels":6402,"ĠStef":6403,"Ġcharts":6404,"Ġintroduction":6405,"Ġinterested":6406,"ĠCalvert":6407,"Ġholds":6408,"offman":6409,"Ġdiscussed":6410,"Ġdollars":6411,"Ġmushroom":6412,"ĠIsabella":6413,"ecess":6414,"host":6415,"town":6416,"var":6417,"erog":6418,"Ġworth":6419,"Ġcab":6420,"enge":6421,"Ġbaby":6422,"Ġpal":6423,"Ġpound":6424,"Ġmort":6425,"icial":6426,"Ġdie":6427,"ĠSound":6428,"Ġlic":6429,"elve":6430,"ĠML":6431,"ivity":6432,"ĠPope":6433,"ĠFar":6434,"ĠDar":6435,"ĠDNA":6436,"ĠDanny":6437,"ĠWall":6438,"ĠNBC":6439,"ĠJersey":6440,"Ġsector":6441,"rien":6442,"Ġvic":6443,"Ġvary":6444,"Ġvision":6445,"opher":6446,"ameter":6447,"ources":6448,"Ġagent":6449,"Ġoffers":6450,"angerous":6451,"Ġ66":6452,"Ġpublisher":6453,"oba":6454,"ajev":6455,"Ġ1948":6456,"Ġdescribing":6457,"Ġgeneration":6458,"Ġmoder":6459,"Ġ1917":6460,"Ġappearing":6461,"Ġmedieval":6462,"Ġfields":6463,"Ġstatement":6464,"Ġhistoric":6465,"Ġ1890":6466,"Ġcoastal":6467,"Ġpredecess":6468,"Ġelectric":6469,"Ġruled":6470,"Ġrules":6471,"Ġaccounts":6472,"Ġyounger":6473,"ĠWeekly":6474,"ĠSarajev":6475,"ĠLisa":6476,"ĠIndustry":6477,"ĠSarajevo":6478,"can":6479,"mans":6480,"Ã¨":6481,"intend":6482,"erted":6483,"orough":6484,"Ġcaught":6485,"Ġcinem":6486,"itors":6487,"ena":6488,"Ġtomb":6489,"ĠHo":6490,"ĠHard":6491,"ĠRay":6492,"ĠDaily":6493,"ĠLess":6494,"iful":6495,"Ġexpect":6496,"Ġexception":6497,"Ġplants":6498,"Ġarts":6499,"ube":6500,"ĠVol":6501,"Ġdesire":6502,"ĠYe":6503,"ĠYank":6504,"formation":6505,"attle":6506,"Ġsomeone":6507,"Ġapart":6508,"Ġsoil":6509,"Ġretire":6510,"Ġ1979":6511,"Ġ1951":6512,"Ġbasic":6513,"Ġeverything":6514,"Ġdiscovery":6515,"Ġdifficulty":6516,"Ġrecognition":6517,"Ġtribes":6518,"Ġzone":6519,"Ġforests":6520,"Ġrarely":6521,"Ġconsiderable":6522,"ĠStrand":6523,"ĠVictoria":6524,"Ġemotional":6525,"Ġninth":6526,"ĠDestiny":6527,"Ġarticle":6528,"Ġrestaurant":6529,"cribed":6530,"ĠStephen":6531,"ĠFrederick":6532,"ĠYankovic":6533,"OC":6534,"cop":6535,"ients":6536,"vis":6537,"Ġtaught":6538,"orer":6539,"itage":6540,"Ġbond":6541,"ĠTop":6542,"ĠAround":6543,"igades":6544,"Ġstore":6545,"ĠHell":6546,"othes":6547,"ĠPress":6548,"Ġconve":6549,"ĠGil":6550,"ĠEarl":6551,"ĠInit":6552,"Ġshore":6553,"Ġkings":6554,"Ġcontest":6555,"Ġmanner":6556,"Ġdisappe":6557,"Ġenl":6558,"Ġshel":6559,"Ġdoct":6560,"Ġ1961":6561,"Ġlanded":6562,"Ġ1954":6563,"ĠTelevision":6564,"Ġevening":6565,"Ġopponents":6566,"Ġreplacement":6567,"ĠAbb":6568,"Ġinvolvement":6569,"Ġpitch":6570,"graded":6571,"coming":6572,"Ġnomination":6573,"Ġspecifically":6574,"Ġchapel":6575,"Ġwooden":6576,"ĠResear":6577,"Ġcolonial":6578,"ĠJoe":6579,"Ġhotel":6580,"ĠSomali":6581,"Ġrhyth":6582,"ĠClarkson":6583,"Ġthirty":6584,"ĠRolling":6585,"ĠMozamb":6586,"Ġsudden":6587,"Brien":6588,"aire":6589,"cation":6590,"nest":6591,"rin":6592,"ym":6593,"ys":6594,"Ã¶":6595,"Ġfan":6596,"Ġfair":6597,"ingale":6598,"Ġmine":6599,"Ġhope":6600,"ĠSanta":6601,"ĠFame":6602,"ĠFlow":6603,"ĠDom":6604,"ĠDet":6605,"Ġconsequ":6606,"ĠNether":6607,"ĠLords":6608,"ĠJif":6609,"ateur":6610,"Ġimpr":6611,"Ġwealth":6612,"Ġ69":6613,"Ġsecured":6614,"ĠAnton":6615,"Ġ87":6616,"Ġsoft":6617,"Ġaccur":6618,"ĠLee":6619,"Ġ1937":6620,"Ġbelieves":6621,"ĠOrder":6622,"psons":6623,"Ġcommunities":6624,"ĠSimpsons":6625,"Ġdivine":6626,"ĠRoberts":6627,"aska":6628,"Ġpoems":6629,"ĠDuke":6630,"ĠSingles":6631,"ĠJerusal":6632,"ĠCampb":6633,"ĠSkye":6634,"Ġintersection":6635,"Ġcontroversy":6636,"Ġpicked":6637,"ĠColonel":6638,"ĠCastle":6639,"ĠWilde":6640,"Ġrecommended":6641,"Ġfungus":6642,"ĠBono":6643,"ĠFrancisco":6644,"ĠJifna":6645,"ĠJerusalem":6646,"LI":6647,"ao":6648,"eenth":6649,"nell":6650,"named":6651,"rations":6652,"theless":6653,"rets":6654,"reets":6655,"itled":6656,"Ġfaces":6657,"Ġmunicip":6658,"ĠTel":6659,"Ġlov":6660,"ĠMaster":6661,"ĠRÃ©":6662,"ĠFish":6663,"ĠDis":6664,"Ġconte":6665,"ĠWars":6666,"ava":6667,"Ġpros":6668,"Ġvan":6669,"ultane":6670,"Ġreleg":6671,"Ġwhereas":6672,"Ġsigning":6673,"Ġ1955":6674,"Ġextrem":6675,"ĠTrack":6676,"Ġstandards":6677,"Ġlegs":6678,"Ġjoint":6679,"ĠEliz":6680,"ĠHamilton":6681,"Ġappoint":6682,"Ġmissed":6683,"Ġlaunch":6684,"Ġdrawing":6685,"Ġvolunte":6686,"ĠÃĹ":6687,"ĠOlympics":6688,"Ġscholar":6689,"Ġconcerns":6690,"ĠMilitary":6691,"Ġleadership":6692,"Ġprincipal":6693,"Ġspecimens":6694,"ĠAdams":6695,"ĠTransport":6696,"ĠIndependent":6697,"ĠArgentina":6698,"Ġorganizations":6699,"Ġextremely":6700,"30":6701,"Ġsession":6702,"atures":6703,"Ġcard":6704,"amber":6705,"ĠCat":6706,"ĠCop":6707,"ĠCory":6708,"Ġgal":6709,"ĠBi":6710,"Ġstream":6711,"ĠHere":6712,"ceived":6713,"ĠRif":6714,"ĠFire":6715,"Ġconference":6716,"ĠWi":6717,"ĠWalk":6718,"Ġ1900":6719,"osure":6720,"avia":6721,"uma":6722,"istol":6723,"Ġexisted":6724,"Ġyouth":6725,"pton":6726,"Ġparties":6727,"Ġpartners":6728,"Ġteeth":6729,"Ġjazz":6730,"wealth":6731,"Ġspeech":6732,"Ġcommit":6733,"ĠMarc":6734,"Ġshowing":6735,"Ġdistributed":6736,"Ġ1958":6737,"ĠBeach":6738,"ĠForces":6739,"Ġapproached":6740,"Ġtries":6741,"ĠPrime":6742,"engers":6743,"Ġrelationships":6744,"Äģn":6745,"Ġtreaty":6746,"Ġdiameter":6747,"Ġthreatened":6748,"Ġsurrounded":6749,"Ġemerged":6750,"Ġchemical":6751,"ranean":6752,"ĠWriting":6753,"ĠBanai":6754,"Ġconnection":6755,"Ġeuropium":6756,"ez":6757,"gie":6758,"ipe":6759,"wise":6760,"Ġwants":6761,"Ġwrong":6762,"edom":6763,"alent":6764,"Ġpack":6765,"Ġpage":6766,"Ġhill":6767,"ĠSpring":6768,"add":6769,"acent":6770,"ĠMot":6771,"Ġstem":6772,"ĠHu":6773,"Ġalien":6774,"ĠFel":6775,"ĠWy":6776,"Ġshark":6777,"Ġleuk":6778,"ideos":6779,"Ġdisapp":6780,"ĠYan":6781,"Ġ79":6782,"Ġproduct":6783,"Ġ1949":6784,"Ġ1977":6785,"Ġdiscip":6786,"Ġstrateg":6787,"ĠCarter":6788,"ĠPlot":6789,"Ã©t":6790,"Ġsolid":6791,"Ġhistorians":6792,"Ġseeing":6793,"Ġcrossed":6794,"Ġfacing":6795,"Ġregularly":6796,"Ġconduct":6797,"ĠDepression":6798,"Ġrailway":6799,"Ġimmediate":6800,"Ġfiring":6801,"Ġfavorite":6802,"Ġhoped":6803,"Ġdocumentary":6804,"Ġinstitutions":6805,"Ġlbw":6806,"Ġalternative":6807,"Ġratings":6808,"ĠNorman":6809,"Ġexpedition":6810,"ĠRoger":6811,"Ġunusual":6812,"ĠModern":6813,"Ġisolated":6814,"Ġsynthes":6815,"ĠLennon":6816,"dal":6817,"inals":6818,"Ġsoul":6819,"union":6820,"atus":6821,"Ġcold":6822,"Ġbes":6823,"Ġinland":6824,"entions":6825,"owie":6826,"usad":6827,"ĠDA":6828,"ĠWW":6829,"ĠWat":6830,"ĠGoffman":6831,"abeth":6832,"Ġadmitted":6833,"oked":6834,"Ġscrap":6835,"Ġpartial":6836,"ĠUnlike":6837,"Ġregional":6838,"Ġassumed":6839,"Ġindig":6840,"Ġsym":6841,"Ġ121":6842,"iversary":6843,"Ġbright":6844,"Ġexpansion":6845,"Ġowner":6846,"Ġdesignation":6847,"Ġwarm":6848,"Ġpointed":6849,"ossible":6850,"ĠHergÃ©":6851,"Ġanniversary":6852,"Ġreviewer":6853,"Ġbreaking":6854,"Ġdemol":6855,"Ġstrongly":6856,"Ġchanging":6857,"Ġdetail":6858,"Ġdestroyers":6859,"Ġprotests":6860,"ombat":6861,"Ġtreated":6862,"ÃŃvar":6863,"Ġveget":6864,"Ġlanguages":6865,"Ġsequel":6866,"ooth":6867,"Ġmotor":6868,"Ġliterary":6869,"Ġexamples":6870,"Ġbringing":6871,"ĠJaneiro":6872,"Ġwatershed":6873,"ĠHuman":6874,"ĠBolÃŃvar":6875,"Ġmessage":6876,"Ġduties":6877,"ĠRyan":6878,"Ġprotagonist":6879,"ĠSaprang":6880,"ĠKilmer":6881,"Ġfranchise":6882,"friend":6883,"gas":6884,"rab":6885,"war":6886,"Ã¼":6887,"Ġtie":6888,"onica":6889,"Ġske":6890,"orters":6891,"Ġfish":6892,"ingly":6893,"Ġharm":6894,"ĠTrib":6895,"ĠTower":6896,"ĠAR":6897,"Ġeighth":6898,"ĠIron":6899,"imet":6900,"Ġstadium":6901,"ĠFern":6902,"ĠWimb":6903,"osite":6904,"ĠNap":6905,"Ġsections":6906,"Ġorchest":6907,"Ġchampion":6908,"ĠKat":6909,"ĠKel":6910,"Ġtra":6911,"ĠChief":6912,"Ġintention":6913,"ĠHearts":6914,"Ġaged":6915,"Ġoverw":6916,"ibl":6917,"Ġoutf":6918,"Ġmeets":6919,"aws":6920,"Ġretreat":6921,"Ġindicated":6922,"Ġ1983":6923,"Ġminister":6924,"ledon":6925,"Ġdepartment":6926,"Ġairline":6927,"Ġwinner":6928,"Ġapproved":6929,"Ġmarks":6930,"Ġdetailed":6931,"Ġgenre":6932,"Ġcoup":6933,"Ġimprove":6934,"Ġcircum":6935,"Ġengineering":6936,"Ġcompletion":6937,"Ġabsor":6938,"ĠLawton":6939,"Ġancest":6940,"Ġattracted":6941,"ĠBCE":6942,"Ġspecimen":6943,"Ġwearing":6944,"Ġrescue":6945,"ĠBurns":6946,"Ġeggs":6947,"Ġeasily":6948,"Ġacademic":6949,"ĠGeorgia":6950,"ĠResearch":6951,"ĠWimbledon":6952,"aug":6953,"eor":6954,"iour":6955,"know":6956,"nie":6957,"och":6958,"Ġur":6959,"Ġib":6960,"ona":6961,"Ġsun":6962,"orous":6963,"arp":6964,"ician":6965,"Ġhappy":6966,"ĠAD":6967,"ĠSquare":6968,"Ġlap":6969,"aments":6970,"ĠMid":6971,"ĠIV":6972,"Ġgather":6973,"ĠBul":6974,"ĠBase":6975,"ĠBank":6976,"ĠHung":6977,"ĠPerson":6978,"ĠWin":6979,"Ġru":6980,"allow":6981,"ockey":6982,"ĠStation":6983,"Ġtrail":6984,"pping":6985,"ogether":6986,"oking":6987,"ĠThird":6988,"ensus":6989,"ĠDev":6990,"Ġacknow":6991,"Ġmuscar":6992,"Ġaccused":6993,"Ġcoord":6994,"Ġemp":6995,"ĠGerard":6996,"Ġcarbon":6997,"ĠColor":6998,"Ġattempting":6999,"Ġeffectively":7000,"istered":7001,"Ġlooked":7002,"Ġreading":7003,"Ġsurviving":7004,"Ġpractices":7005,"Ġterritories":7006,"ĠRichardson":7007,"Ġcivilian":7008,"Ġtraveled":7009,"Ġfeeling":7010,"Ġassistant":7011,"ĠTerrit":7012,"ĠJean":7013,"Ġsettled":7014,"Ġchallenge":7015,"ĠSomalia":7016,"Ġconstitution":7017,"Ġencouraged":7018,"Ġterminus":7019,"Ġstarling":7020,"ĠRhodes":7021,"ĠCambridge":7022,"Ġadjacent":7023,"Ġcitiz":7024,"ban":7025,"bur":7026,"body":7027,"break":7028,"cape":7029,"mod":7030,"Ġsell":7031,"Ġfer":7032,"Ġbal":7033,"Ġmut":7034,"Ġdock":7035,"Ġthin":7036,"ĠSa":7037,"ĠSi":7038,"ĠSav":7039,"Ġnick":7040,"amm":7041,"ĠMortal":7042,"thy":7043,"Ġstreak":7044,"ĠRos":7045,"Ġraces":7046,"Ġvideos":7047,"illing":7048,"ewhat":7049,"Ġshots":7050,"ĠKombat":7051,"Ġcompounds":7052,"Ġrecre":7053,"Ġrecalled":7054,"Ġpartly":7055,"Ġpreced":7056,"Ġevil":7057,"ĠAniston":7058,"Ġ91":7059,"Ġ99":7060,"Ġ88":7061,"Ġunderw":7062,"Ġinterchange":7063,"Ġdecor":7064,"Ġcrest":7065,"Ġobtained":7066,"Ġ1910":7067,"Ġextreme":7068,"Ġpossession":7069,"Ġvisible":7070,"Ġstands":7071,"Ġ1909":7072,"Ġconvoy":7073,"ĠKeamy":7074,"Ġidentity":7075,"Ġ1880":7076,"Ġarmor":7077,"Ġseemed":7078,"Ġgrey":7079,"Ġpainted":7080,"Ġbrothers":7081,"Ġmulti":7082,"Ġtowers":7083,"Ġarrangement":7084,"ĠFormula":7085,"Ġrecovered":7086,"Ġscientific":7087,"ĠGarc":7088,"Ġinhabit":7089,"Ġcandidate":7090,"ĠJournal":7091,"ĠCommonwealth":7092,"Ġromantic":7093,"ĠAttorney":7094,"Ġagricultural":7095,"ĠJesus":7096,"ĠAdmiral":7097,"Ġsomewhat":7098,"Ġinspiration":7099,"bie":7100,"dess":7101,"Ġtone":7102,"Ġtheatre":7103,"Ġsan":7104,"Ġocean":7105,"isis":7106,"Ġhits":7107,"ĠTest":7108,"amin":7109,"Ġgall":7110,"ivals":7111,"thosaurus":7112,"ĠPine":7113,"ĠPower":7114,"emia":7115,"ĠWolf":7116,"ĠLanc":7117,"Ġhear":7118,"Ġselect":7119,"umps":7120,"Ġproceed":7121,"Ġshif":7122,"Ġcloud":7123,"Ġteach":7124,"achus":7125,"Ġspaces":7126,"ĠAnc":7127,"Ġrelative":7128,"ĠMarines":7129,"Ġverse":7130,"Ġfled":7131,"Ġacts":7132,"ropol":7133,"Ġpreserved":7134,"Ġ122":7135,"Ġmaint":7136,"ĠJohnston":7137,"Ġestate":7138,"ekÄģn":7139,"ĠGermans":7140,"Ġimplement":7141,"ĠFraser":7142,"ennis":7143,"Ġpassage":7144,"Ġ1931":7145,"Ġ1935":7146,"Ġ1912":7147,"ĠGuy":7148,"Ġfootage":7149,"ĠPoland":7150,"Ġequal":7151,"Ġconvin":7152,"Ġcatch":7153,"Ġcycle":7154,"Ġsuffering":7155,"ĠIslands":7156,"Ġreduce":7157,"Ġhosted":7158,"Ġfunds":7159,"Ġindustrial":7160,"ĠArabic":7161,"ĠEvery":7162,"Ġlinked":7163,"Ġspirit":7164,"ĠType":7165,"Ġsculpture":7166,"Ġbasketball":7167,"ĠPlunketts":7168,"ĠCorythosaurus":7169,"bishop":7170,"how":7171,"iary":7172,"rast":7173,"sewhere":7174,"vious":7175,"Ã¤":7176,"Ġere":7177,"Ġtailed":7178,"Ġau":7179,"Ġsessions":7180,"Ġsiege":7181,"Ġwars":7182,"unior":7183,"itals":7184,"arning":7185,"Ġps":7186,"Ġmis":7187,"Ġmap":7188,"Ġhip":7189,"illy":7190,"sta":7191,"Ġlob":7192,"ĠCE":7193,"ĠBos":7194,"using":7195,"ĠProte":7196,"Ġconqu":7197,"ĠNick":7198,"ĠNintend":7199,"ĠLoc":7200,"Ġdeck":7201,"ĠEc":7202,"peare":7203,"ĠInc":7204,"Ġchronic":7205,"abled":7206,"Ġlegend":7207,"Ġlearning":7208,"Ġunf":7209,"Ġdispl":7210,"Ġserial":7211,"ĠYour":7212,"ĠRele":7213,"aware":7214,"Ġflo":7215,"Ġincome":7216,"ĠLev":7217,"ificial":7218,"ĠShakes":7219,"Ġcontinuing":7220,"Ġexpensive":7221,"Ġprovince":7222,"Ġattacking":7223,"Ġ1932":7224,"ĠAllah":7225,"Ġreviewers":7226,"Ġopposite":7227,"Ġmedium":7228,"Ġdestruction":7229,"Ġdebate":7230,"attered":7231,"Ġtwelve":7232,"ĠExp":7233,"Ġcirculation":7234,"Ġresponsibility":7235,"Ġdefended":7236,"Ġstayed":7237,"Ġblocks":7238,"going":7239,"ĠHotel":7240,"ĠFIA":7241,"Ġequipped":7242,"Ġconcerned":7243,"Ġcontroversial":7244,"Ġadults":7245,"Ġcomposer":7246,"Ġincorporated":7247,"ĠPeninsula":7248,"Ġcorrect":7249,"ĠMarlborough":7250,"Ġdownload":7251,"erogative":7252,"ĠNintendo":7253,"ĠShakespeare":7254,"hm":7255,"ka":7256,"xts":7257,"ycl":7258,"yles":7259,"Ġic":7260,"onic":7261,"orious":7262,"Ġble":7263,"Ġbay":7264,"Ġinaug":7265,"Ġpric":7266,"Ġpushed":7267,"icts":7268,"Ġnone":7269,"uri":7270,"Ġgone":7271,"ĠPul":7272,"ĠFair":7273,"agas":7274,"Ġritual":7275,"ĠOwen":7276,"Ġproport":7277,"ĠKar":7278,"Ġreserve":7279,"Ġspin":7280,"Ġsongwrit":7281,"Ġpool":7282,"iamond":7283,"Ġdepos":7284,"inking":7285,"Ġpassengers":7286,"Ġwilling":7287,"Ġ1911":7288,"Ġdriving":7289,"ĠFei":7290,"Ġ1921":7291,"Ġ1929":7292,"ĠFlight":7293,"Ġlowest":7294,"Ġvictims":7295,"Ġpatrol":7296,"ĠPalace":7297,"ĠPalmy":7298,"Ġpromote":7299,"Ġmeetings":7300,"Ġcrossing":7301,"Ġaccommod":7302,"Ġfalling":7303,"Ġmeasures":7304,"stitution":7305,"Ġrebels":7306,"ĠLawrence":7307,"Ġobservations":7308,"Ġvoted":7309,"ĠPatrick":7310,"Ġthrowing":7311,"hews":7312,"ĠStanley":7313,"Ġremnants":7314,"Ġparallel":7315,"ĠConstruction":7316,"Ġinitiative":7317,"Ġkitsune":7318,"ĠNetherlands":7319,"burg":7320,"rant":7321,"ses":7322,"yard":7323,"zi":7324,"zen":7325,"inje":7326,"Ġsight":7327,"Ġcraft":7328,"itated":7329,"Ġinte":7330,"anning":7331,"Ġhat":7332,"ĠSweet":7333,"ĠChen":7334,"ĠCook":7335,"olay":7336,"ĠBert":7337,"iminal":7338,"ĠHospital":7339,"uscript":7340,"emeter":7341,"agn":7342,"Ġcomments":7343,"Ġexha":7344,"Ġplain":7345,"oca":7346,"ĠStory":7347,"ĠStock":7348,"ogen":7349,"onder":7350,"arked":7351,"formed":7352,"Ġ82":7353,"Ġflat":7354,"Ġacclaim":7355,"Ġretained":7356,"Ġdefences":7357,"Ġgross":7358,"Ġ162":7359,"Ġ1962":7360,"Ġreturns":7361,"Ġmusicians":7362,"Ġ1959":7363,"Ġgovernor":7364,"Ġ1938":7365,"Ġclassical":7366,"ĠGeoff":7367,"ĠOrgan":7368,"Ġinvolving":7369,"Ġrepresenting":7370,"Ġpatron":7371,"Ġequivalent":7372,"Ġgoddess":7373,"Ġpraise":7374,"ĠAtlanta":7375,"Ġwatch":7376,"Ġvillages":7377,"Ġpitcher":7378,"Ġdifficulties":7379,"Ġsuperior":7380,"Ġraise":7381,"ĠPlayer":7382,"Ġbiography":7383,"ĠQueens":7384,"Ġintensified":7385,"Ġobjects":7386,"ĠEmperor":7387,"Ġabsol":7388,"Ġunderstand":7389,"ĠPitman":7390,"Ġcarrying":7391,"Ġvessels":7392,"ĠKorean":7393,"Ġfixed":7394,"Ġbatsman":7395,"ĠGuardian":7396,"ĠCambodia":7397,"Ġoccasions":7398,"Ġhydro":7399,"Ġglobal":7400,"Ġethn":7401,"ĠStefani":7402,"ĠElizabeth":7403,"ĠGarcÃŃa":7404,"emetery":7405,"de":7406,"uct":7407,"wich":7408,"err":7409,"Ġsam":7410,"Ġsulf":7411,"Ġow":7412,"Ġcry":7413,"Ġfal":7414,"Ġfine":7415,"Ġmart":7416,"Ġdivers":7417,"entures":7418,"ĠCru":7419,"Ġonline":7420,"Ġgend":7421,"terbury":7422,"ĠBass":7423,"ĠHun":7424,"Ġalleg":7425,"Ġansw":7426,"ĠLab":7427,"ĠJoy":7428,"Ġsees":7429,"Ġray":7430,"ĠOur":7431,"Ġprohib":7432,"Ġorn":7433,"Ġexchange":7434,"ĠChannel":7435,"Ġresources":7436,"Ġju":7437,"Ġcommitted":7438,"Ġ74":7439,"Ġsimultane":7440,"ĠMega":7441,"ĠCanterbury":7442,"Ġperiods":7443,"ĠSpace":7444,"Ġcovers":7445,"Ġdefeating":7446,"pecies":7447,"Ġinfluences":7448,"ĠDesign":7449,"Ġdivisions":7450,"Ġlimit":7451,"Ġneeds":7452,"Ġaccompany":7453,"Ġmoral":7454,"Ġcollaps":7455,"Ġrenew":7456,"Ġreveals":7457,"ĠMediter":7458,"Ġescort":7459,"ĠEnterprise":7460,"Ġpurchase":7461,"Ġnarrative":7462,"Ġvoiced":7463,"Ġbehaviour":7464,"ĠPalestine":7465,"ĠAthletic":7466,"Ġcamera":7467,"Ġpreferred":7468,"Ġconcerts":7469,"ĠProtest":7470,"ĠAerith":7471,"ĠPhillies":7472,"Ġsurvivors":7473,"Ġcontext":7474,"ĠMediterranean":7475,"fare":7476,"graf":7477,"mine":7478,"rig":7479,"uilt":7480,"Ġtick":7481,"rel":7482,"Ġcul":7483,"Ġfold":7484,"esc":7485,"esi":7486,"ĠCorn":7487,"ĠMu":7488,"ĠMother":7489,"ĠBark":7490,"Ġash":7491,"ĠRaff":7492,"ĠRugby":7493,"ĠFurt":7494,"ĠDC":7495,"ĠDi":7496,"ĠWicc":7497,"ĠNow":7498,"ĠLate":7499,"ĠLink":7500,"ĠLabor":7501,"Ġrugby":7502,"resents":7503,"apped":7504,"ophy":7505,"atech":7506,"Ġexit":7507,"uda":7508,"ĠStop":7509,"elli":7510,"ureau":7511,"Ġclo":7512,"Ġagree":7513,"Ġfeather":7514,"Ġproducts":7515,"Ġformally":7516,"Ġfollowers":7517,"Ġincom":7518,"Ġ06":7519,"Ġ07":7520,"Ġ161":7521,"annah":7522,"Ġoperating":7523,"raph":7524,"Ġrepresents":7525,"ooking":7526,"ahl":7527,"Ġconsiders":7528,"ĠUSD":7529,"Ġrefers":7530,"Ġcovering":7531,"Ġelse":7532,"Ġelabor":7533,"Ġcriticised":7534,"Ġdetect":7535,"Ġdoesn":7536,"Ġsteel":7537,"Ġcloser":7538,"ĠChampionships":7539,"ĠMarkgraf":7540,"Ġtribut":7541,"Ġfeelings":7542,"Ġvisitors":7543,"Ġabsence":7544,"Ġnormally":7545,"Ġhundreds":7546,"Ġpupils":7547,"ĠSpecial":7548,"Ġlegislation":7549,"Ġdeployed":7550,"Ġarrested":7551,"Ġdialogue":7552,"Ġproposal":7553,"ĠGrammy":7554,"Ġrhythm":7555,"Ġmunicipal":7556,"ĠCathedral":7557,"ĠColorado":7558,"ĠRaffles":7559,"ĠFurtado":7560,"after":7561,"eke":7562,"math":7563,"organ":7564,"isms":7565,"esse":7566,"Ġbone":7567,"Ġbrick":7568,"Ġpure":7569,"Ġdim":7570,"Ġdens":7571,"Ġdiet":7572,"Ġet":7573,"ĠCab":7574,"urday":7575,"ĠMel":7576,"iders":7577,"Ġstable":7578,"otic":7579,"ĠPA":7580,"ĠDark":7581,"ĠGib":7582,"agu":7583,"Ġdeem":7584,"ĠUsta":7585,"Ġreconna":7586,"ĠAlong":7587,"Ġmanuscript":7588,"ĠReal":7589,"Ġfeed":7590,"Ġ93":7591,"Ġprerogative":7592,"Ġforming":7593,"Ġamino":7594,"Ġsurpr":7595,"Ġ166":7596,"ĠSholay":7597,"Ġinfrast":7598,"ullen":7599,"ĠTechn":7600,"Ġextent":7601,"Ġclassic":7602,"Ġtrading":7603,"Ġskull":7604,"Ã¡r":7605,"Ġhyp":7606,"Ġbiographer":7607,"Ġpoorly":7608,"Ġstationed":7609,"ĠImperial":7610,"Ġdisplays":7611,"ĠPrior":7612,"Ġensure":7613,"Ġmoments":7614,"Ġoption":7615,"Ġinternal":7616,"Ġdrums":7617,"ĠKrak":7618,"Ġinterpret":7619,"ĠSaturday":7620,"ĠDominican":7621,"ĠNHL":7622,"Ġsubmarine":7623,"Ġresearchers":7624,"Ġreconstruction":7625,"Ġconvection":7626,"ĠFernand":7627,"Ġmuscaria":7628,"ĠUstaÅ¡":7629,"Ġreconnaissance":7630,"eper":7631,"ias":7632,"vention":7633,"Ġsunk":7634,"Ġswe":7635,"Ġsaves":7636,"Ġwings":7637,"Ġcreek":7638,"Ġbat":7639,"Ġblow":7640,"ĠTig":7641,"ĠTreat":7642,"ĠSher":7643,"state":7644,"Ġlose":7645,"Ġlists":7646,"ĠCape":7647,"ĠBed":7648,"Ġstreets":7649,"ĠHou":7650,"ĠHob":7651,"ĠFree":7652,"ĠDur":7653,"eman":7654,"Ġorbit":7655,"ĠKit":7656,"Ġintense":7657,"Ġ89":7658,"ĠMarg":7659,"Ġverte":7660,"Ġappropri":7661,"Ġ05":7662,"Ġentitled":7663,"Ġtransition":7664,"Ġuseful":7665,"ĠBlood":7666,"Ġmodified":7667,"Ġannually":7668,"Ġdriven":7669,"Ġextension":7670,"Ġconstruct":7671,"Ġinfluential":7672,"encies":7673,"Ġposted":7674,"ĠMaggie":7675,"ĠRecord":7676,"ĠMexican":7677,"ĠMedia":7678,"Ġinjuries":7679,"Ġwithdrew":7680,"Ġmemory":7681,"Ġcruiser":7682,"ĠFIFA":7683,"Ġunderstanding":7684,"Ġdramatic":7685,"Ġpurposes":7686,"iques":7687,"Ġdynasty":7688,"ĠDAG":7689,"Ġoverwhel":7690,"CA":7691,"ds":7692,"rine":7693,"sch":7694,"vements":7695,"vati":7696,"Åį":7697,"Ġtight":7698,"Ġtank":7699,"Ġtests":7700,"inet":7701,"onomy":7702,"real":7703,"rell":7704,"Ġsaved":7705,"aten":7706,"ora":7707,"oral":7708,"Ġchess":7709,"icop":7710,"Ġdinosaur":7711,"Ġhang":7712,"lete":7713,"Ġrepr":7714,"Ġloy":7715,"ĠCult":7716,"ĠMah":7717,"ĠBron":7718,"ĠHud":7719,"ĠHok":7720,"ĠHind":7721,"ĠFront":7722,"Ġcong":7723,"uls":7724,"ĠNichol":7725,"ĠJenn":7726,"Ġrated":7727,"Ġrates":7728,"Ġridge":7729,"rif":7730,"Ġvac":7731,"Ġorb":7732,"Ġchoir":7733,"Ġexcess":7734,"Ġplane":7735,"pty":7736,"ĠVII":7737,"Ġclock":7738,"Ġago":7739,"Ġotherwise":7740,"Ġspoke":7741,"Ġ63":7742,"mann":7743,"Ġ900":7744,"Ġwritings":7745,"Ġactual":7746,"Ġammun":7747,"Ġseverely":7748,"Ġoriginated":7749,"Ġshipping":7750,"Ġinstalled":7751,"Ġgenerated":7752,"Ġexposure":7753,"Ġhelicop":7754,"Ġrestrict":7755,"Ġ1928":7756,"Ġengines":7757,"Ġdemand":7758,"Ġsuggesting":7759,"Ġframe":7760,"ĠParvati":7761,"Ġfactors":7762,"Ġinterests":7763,"Ġwatching":7764,"Ġreaders":7765,"ĠTownship":7766,"restling":7767,"Ġcrosses":7768,"Ġburned":7769,"Ġinformed":7770,"Ġkingdom":7771,"Ġmaterials":7772,"ĠIsraeli":7773,"Ġsatisf":7774,"ĠNorway":7775,"Ġessential":7776,"Ġsubspecies":7777,"Ġapparently":7778,"Ġjournalist":7779,"Ġdoubt":7780,"ĠMassachus":7781,"Ġhappened":7782,"Ġpanel":7783,"Ġpicture":7784,"Ġcustom":7785,"Ġchairman":7786,"Ġjackrab":7787,"ĠEducation":7788,"ĠRÃ©union":7789,"Ġcircumstances":7790,"ĠBarker":7791,"Ġammunition":7792,"ĠMassachusetts":7793,"gency":7794,"mn":7795,"ni":7796,"rants":7797,"á»":7798,"Ġille":7799,"heera":7800,"Ġcart":7801,"Ġciting":7802,"Ġfestival":7803,"ĠTon":7804,"Ġready":7805,"ĠAld":7806,"ilst":7807,"ĠSports":7808,"ĠCec":7809,"acle":7810,"ĠHamp":7811,"ĠHaving":7812,"utz":7813,"ĠFound":7814,"ĠGary":7815,"ĠGwen":7816,"aga":7817,"ĠEaton":7818,"ĠInt":7819,"ateau":7820,"ables":7821,"ĠKann":7822,"oven":7823,"raham":7824,"Ġclimate":7825,"Ġrecur":7826,"Ġpartially":7827,"Ġdisaster":7828,"Ġearn":7829,"Ġrelie":7830,"Ġcancer":7831,"Ġmovements":7832,"Ġeleven":7833,"ĠBranch":7834,"Ġbelt":7835,"Ġoperate":7836,"Ġgenerals":7837,"Ġimpossible":7838,"Ġcarved":7839,"Ġlatex":7840,"ĠGuide":7841,"Ġlisten":7842,"urricanes":7843,"Ġ1927":7844,"Ġcauses":7845,"ĠPeters":7846,"Ġparish":7847,"ĠMinistry":7848,"Ġvictories":7849,"ĠXe":7850,"ĠFederal":7851,"ĠRichmond":7852,"Ġmixture":7853,"Ġsurvive":7854,"ĠCorpor":7855,"Ġburning":7856,"ĠWilson":7857,"Ġtransportation":7858,"ĠPortugal":7859,"Ġlayer":7860,"Ġbombard":7861,"Ġadministr":7862,"Ġshells":7863,"Ġinstruments":7864,"Ġstarlings":7865,"Ġbehavior":7866,"ĠHistoric":7867,"Ġdeparture":7868,"ĠRAAF":7869,"ĠSwedish":7870,"tavÄģda":7871,"Ġsubstantial":7872,"Ġoverseas":7873,"ĠPatty":7874,"Ġresistance":7875,"ekÄģntavÄģda":7876,"ĠUstaÅ¡e":7877,"ĠKannada":7878,"OK":7879,"life":7880,"pes":7881,"pent":7882,"yria":7883,"zac":7884,"Ê»":7885,"Ġsquadron":7886,"Ġwine":7887,"Ġdangerous":7888,"lets":7889,"iling":7890,"ĠSis":7891,"Ġlover":7892,"Ġliber":7893,"ĠCBS":7894,"Ġwasn":7895,"Ġbearing":7896,"urse":7897,"ĠMand":7898,"ĠMidge":7899,"ĠMasters":7900,"ĠMÃ¡r":7901,"ĠBall":7902,"ĠBaker":7903,"ĠBureau":7904,"ithic":7905,"ĠPass":7906,"ĠPict":7907,"chang":7908,"andoba":7909,"osl":7910,"osm":7911,"ĠElect":7912,"ĠEagle":7913,"Ġshut":7914,"aste":7915,"teenth":7916,"Ġunlike":7917,"Ġrooms":7918,"Ġabund":7919,"Ġresigned":7920,"ricted":7921,"Ġafterwards":7922,"Ġspores":7923,"ĠYug":7924,"Ġspend":7925,"Ġcommem":7926,"Ġconsc":7927,"Ġamateur":7928,"Ġsupporters":7929,"Ġinstance":7930,"Ġmusician":7931,"Ġmodels":7932,"Ġ1933":7933,"Ġrestored":7934,"Ġmarry":7935,"Ġlisting":7936,"Ġphr":7937,"quez":7938,"Ġtemples":7939,"Ġcompete":7940,"ĠSimpson":7941,"ĠPolice":7942,"Ġinteresting":7943,"Ġlooks":7944,"Ġtechniques":7945,"Ġelectronic":7946,"Ġ1860":7947,"Ġsequences":7948,"Ġengineers":7949,"Ġthinking":7950,"ĠKhandoba":7951,"Ġtribute":7952,"Ġloan":7953,"Ġpersu":7954,"Ġestablishing":7955,"Ġdocuments":7956,"forced":7957,"itzer":7958,"ĠVeronica":7959,"ĠHowe":7960,"rorist":7961,"ASA":7962,"Ġopportunities":7963,"Ġstruggle":7964,"Ġwindows":7965,"Ġpremiered":7966,"Ġbeautiful":7967,"ĠStewart":7968,"ĠYanke":7969,"ĠMÃ¡rquez":7970,"ĠYugosl":7971,"DH":7972,"Hg":7973,"MO":7974,"nal":7975,"pus":7976,"sp":7977,"uv":7978,"western":7979,"Ġtip":7980,"Ġsale":7981,"Ġfram":7982,"ĠinHg":7983,"Ġpale":7984,"Ġmode":7985,"roit":7986,"leph":7987,"ĠTam":7988,"entional":7989,"ĠAP":7990,"ĠSoon":7991,"omura":7992,"ĠThen":7993,"Ġgard":7994,"Ġforcing":7995,"ĠBath":7996,"otton":7997,"ĠRoc":7998,"ĠFRE":7999,"ĠWright":8000,"osis":8001,"ĠNad":8002,"ĠNiel":8003,"ĠLith":8004,"ĠLast":8005,"Ġheat":8006,"ĠJr":8007,"Ġprove":8008,"ĠâĤ":8009,"Ġnotably":8010,"iped":8011,"ishment":8012,"Ġunion":8013,"Ġrecru":8014,"ryce":8015,"Ġoutl":8016,"rene":8017,"Ġ68":8018,"Ġremember":8019,"Ġinteraction":8020,"Ġsubst":8021,"roscop":8022,"Ġminimum":8023,"Ġartwork":8024,"Ġartificial":8025,"ĠWho":8026,"Ġdesigns":8027,"Ġoffices":8028,"Ġ1957":8029,"Ġadvis":8030,"Ġadventure":8031,"Ġstorms":8032,"onto":8033,"Ġcriminal":8034,"Ġsituated":8035,"Ġelsewhere":8036,"Ġdivor":8037,"Ġpredomin":8038,"Ġrecognised":8039,"Ġachieve":8040,"ĠPhilip":8041,"Ġmerch":8042,"ĠToronto":8043,"Ġproperties":8044,"Ġmemorial":8045,"Ġcoins":8046,"Ġexperiences":8047,"ĠJustice":8048,"Ġweapon":8049,"ĠRobin":8050,"Ġspiritual":8051,"ĠMiller":8052,"Ġthousand":8053,"Ġneighbor":8054,"Ġvessel":8055,"ĠGirls":8056,"ĠJurchen":8057,"ĠPhoenix":8058,"ĠMulder":8059,"Ġretirement":8060,"ĠMozambique":8061,"ĠDetroit":8062,"LIMO":8063,"Ġacknowled":8064,"atechism":8065,"ĠFRELIMO":8066,"cru":8067,"iar":8068,"ÅĽ":8069,"áĥ":8070,"Ġáĥ":8071,"Ġtiss":8072,"Ġtanks":8073,"heme":8074,"Ġsons":8075,"orrow":8076,"Ġfountain":8077,"Ġmask":8078,"icide":8079,"ĠTs":8080,"Ġrect":8081,"ĠSb":8082,"ĠSans":8083,"omatic":8084,"ĠCob":8085,"ĠCelt":8086,"ĠIra":8087,"Ġgiant":8088,"ĠBell":8089,"ĠBang":8090,"ĠBenn":8091,"ĠPoint":8092,"ĠRest":8093,"ĠRaj":8094,"Ġconj":8095,"ĠNetwork":8096,"Ġselection":8097,"Ġvast":8098,"aka":8099,"Ġshop":8100,"ĠKim":8101,"ĠKansas":8102,"order":8103,"ears":8104,"Ġtrained":8105,"ĠVice":8106,"Ġresign":8107,"Ġagents":8108,"Ġattrib":8109,"Ġ67":8110,"ĠSee":8111,"ĠSeason":8112,"ĠDeath":8113,"Ġformat":8114,"Ġfounder":8115,"atherine":8116,"ĠScully":8117,"Ġobst":8118,"Ġdepicts":8119,"Ġinstru":8120,"Ġcounties":8121,"Ġcharacterized":8122,"ĠProg":8123,"pended":8124,"Ġengage":8125,"ĠManagement":8126,"Ġstarred":8127,"Ġformerly":8128,"Ġwestward":8129,"ĠMinor":8130,"ĠPerfect":8131,"Ġfrig":8132,"Ġstatistics":8133,"ĠBarry":8134,"Ġprogramme":8135,"Ġradiation":8136,"ĠKevin":8137,"Ġ1850":8138,"Ġfallen":8139,"Ġmeasured":8140,"Ġcosts":8141,"Ġburial":8142,"Ġcopy":8143,"Ġobjective":8144,"Ġnetworks":8145,"ĠMoore":8146,"ĠRussia":8147,"Ġcleared":8148,"Ġcheck":8149,"Ġbiggest":8150,"Ġdepending":8151,"Ġphotograph":8152,"Ġinstitution":8153,"Ġvehicle":8154,"Ġremarked":8155,"Ġexcavation":8156,"Ġholiday":8157,"ĠJourney":8158,"ĠAlbums":8159,"Ġdelayed":8160,"ĠColeman":8161,"umption":8162,"ĠBulls":8163,"ĠGilbert":8164,"ĠWiÅĽ":8165,"owiecki":8166,"Ġconvinced":8167,"Ġpsych":8168,"Ġinfrastructure":8169,"ĠHudson":8170,"niowiecki":8171,"ĠWiÅĽniowiecki":8172,"hist":8173,"mel":8174,"nce":8175,"oe":8176,"uable":8177,"Äĩ":8178,"heim":8179,"hered":8180,"eratops":8181,"Ġsed":8182,"Ġmamm":8183,"Ġdream":8184,"Ġhorn":8185,"ĠSid":8186,"ĠSuch":8187,"ĠBudd":8188,"Ġstyles":8189,"otal":8190,"ĠGate":8191,"Ġrum":8192,"Ġrivers":8193,"ategy":8194,"akota":8195,"ĠStories":8196,"Ġcompound":8197,"ruz":8198,"assador":8199,"Ġresidence":8200,"Ġplayoff":8201,"Ġimpl":8202,"amps":8203,"ĠAnzac":8204,"oyage":8205,"ĠArsenal":8206,"Ġ84":8207,"Ġ86":8208,"Ġconservation":8209,"Ġformal":8210,"Ġdecides":8211,"Ġdescribe":8212,"ĠWarren":8213,"Ġinscription":8214,"Ġhelmet":8215,"Ġ140":8216,"Ġrestoration":8217,"ĠCanal":8218,"Ġdifferences":8219,"ĠGray":8220,"ĠRoth":8221,"Ġ1926":8222,"Ġopponent":8223,"Ġcrake":8224,"Ġclaiming":8225,"Ġskills":8226,"ĠMagdal":8227,"Ġpredators":8228,"Ġaudiences":8229,"Ġclosest":8230,"criptions":8231,"Ġdetermine":8232,"Ġclearly":8233,"Ġhousing":8234,"Ġrailroad":8235,"ĠRepublican":8236,"Ġdisplayed":8237,"ĠOscar":8238,"avalry":8239,"Ġvote":8240,"ĠMrs":8241,"ĠTrek":8242,"Ġsafe":8243,"ĠOriginally":8244,"Ġranging":8245,"Ġhunting":8246,"ĠSilver":8247,"ĠNevertheless":8248,"ĠMemorial":8249,"Ġreservoir":8250,"Ġreinforcements":8251,"Ġbenefit":8252,"Ġcrops":8253,"ĠPersian":8254,"Ġpredecessor":8255,"ĠInitially":8256,"ĠTerritory":8257,"Ġcitizens":8258,"ĠOrganization":8259,"Ġfeathers":8260,"ĠHokies":8261,"Mal":8262,"boy":8263,"ef":8264,"lie":8265,"piece":8266,"rates":8267,"rating":8268,"tic":8269,"wald":8270,"onia":8271,"rees":8272,"Ġsung":8273,"itt":8274,"Ġtoll":8275,"icate":8276,"Ġdipl":8277,"leged":8278,"ĠAz":8279,"oming":8280,"ĠCategory":8281,"ĠISB":8282,"ĠRain":8283,"Ġalleged":8284,"ĠDiv":8285,"aints":8286,"Ġprol":8287,"iform":8288,"abil":8289,"ĠChagas":8290,"ĠValk":8291,"Ġadm":8292,"Ġteen":8293,"Ġattained":8294,"ĠUntil":8295,"ĠComb":8296,"Ġregiment":8297,"Ġcooper":8298,"Ġthereafter":8299,"Ġgrown":8300,"Ġelections":8301,"Ġenth":8302,"rosaur":8303,"Ġteamm":8304,"Ġinstall":8305,"yline":8306,"Ġanyone":8307,"Ġcargo":8308,"ĠBeh":8309,"Ġpromised":8310,"Ġrestricted":8311,"Ġchildhood":8312,"Ġpossess":8313,"Ġarrive":8314,"Ġslide":8315,"Ġcommandment":8316,"iveness":8317,"Ġtemporary":8318,"ĠAbby":8319,"shore":8320,"Ġrepresentative":8321,"Ġ1905":8322,"sequently":8323,"Ġannounce":8324,"Ġgrounds":8325,"Ġfuner":8326,"Ġranking":8327,"ucky":8328,"Ġerr":8329,"Ġargues":8330,"ĠRocky":8331,"Ġdefending":8332,"Ġruling":8333,"Ġperspective":8334,"ĠTurks":8335,"Ġadaptation":8336,"Ġdegrees":8337,"ĠVictorian":8338,"Ġbadly":8339,"Ġmagnitude":8340,"Ġscientists":8341,"ĠConfeder":8342,"ĠCommunist":8343,"Ġranges":8344,"Ġpreparation":8345,"Ġthrone":8346,"ĠChapel":8347,"Ġtunnel":8348,"ĠJonathan":8349,"Ġprompted":8350,"ĠLeslie":8351,"ĠLegacy":8352,"Ġexclusively":8353,"ĠMathews":8354,"Ġastronom":8355,"Ġmoderate":8356,"Ġimprison":8357,"ĠKelly":8358,"ĠExpress":8359,"ĠProtestant":8360,"Malley":8361,"ĠISBN":8362,"ĠValkyria":8363,"AT":8364,"CC":8365,"DS":8366,"EFA":8367,"aun":8368,"burn":8369,"fess":8370,"put":8371,"yer":8372,"inery":8373,"Ġtheater":8374,"rec":8375,"Ġsad":8376,"Ġster":8377,"Ġsisters":8378,"Ġcake":8379,"Ġcaves":8380,"Ġbed":8381,"Ġbones":8382,"inger":8383,"Ġmoon":8384,"icit":8385,"icia":8386,"Ġdwar":8387,"Ġhuge":8388,"ĠSle":8389,"Ġeasy":8390,"Ġnav":8391,"Ġnurse":8392,"eline":8393,"adheera":8394,"Ġbear":8395,"Ġgates":8396,"ola":8397,"olen":8398,"owa":8399,"ĠHope":8400,"uses":8401,"ĠDave":8402,"ĠDyn":8403,"ĠGun":8404,"ĠLover":8405,"Ġdeity":8406,"Ġdeleg":8407,"Ġexists":8408,"ĠâĢľ":8409,"ĠUEFA":8410,"ĠStal":8411,"ishn":8412,"ĠVul":8413,"Ġclim":8414,"Ġresumed":8415,"Ġ58":8416,"Ġdesert":8417,"Ġmanga":8418,"Ġenh":8419,"Ġoutbreak":8420,"ternal":8421,"Ġ78":8422,"ĠAsh":8423,"Ġrelation":8424,"Ġconsol":8425,"Ġcharged":8426,"Ġprime":8427,"Ġ08":8428,"Ġdecay":8429,"Ġpoison":8430,"ĠShow":8431,"Ġ178":8432,"Ġreprodu":8433,"Ġnorthward":8434,"ĠPlat":8435,"ĠAllen":8436,"ĠProfess":8437,"Ġexplains":8438,"gery":8439,"Ġhandled":8440,"ĠMcL":8441,"Ġmyst":8442,"Ġeveryone":8443,"Ġtwin":8444,"braska":8445,"alymp":8446,"Ġbands":8447,"ĠParalymp":8448,"ĠEvent":8449,"ĠNebraska":8450,"Ġsky":8451,"ĠMagadheera":8452,"Ġsteam":8453,"Ġengineer":8454,"Ġinjured":8455,"Ġamounts":8456,"Ġcolonies":8457,"rupted":8458,"Ġboundary":8459,"Ġcelebrated":8460,"ĠWaterfall":8461,"Ġarchitecture":8462,"ĠOutstanding":8463,"Ġcorner":8464,"Ġadvertising":8465,"ĠCheval":8466,"ĠDemocratic":8467,"Ġutil":8468,"Ġrifle":8469,"ĠBrooks":8470,"Ġbulk":8471,"Ġstrengthened":8472,"Ġinhabitants":8473,"Ġerected":8474,"ĠBertin":8475,"Ġethnic":8476,"Ġdeemed":8477,"ĠTreaty":8478,"ĠIraq":8479,"Ġdwarf":8480,"SA":8481,"gov":8482,"kh":8483,"night":8484,"ris":8485,"Ġtack":8486,"Ġturb":8487,"Ġaw":8488,"Ġwet":8489,"Ġcars":8490,"Ġfate":8491,"Ġfant":8492,"Ġbell":8493,"Ġbind":8494,"Ġbanned":8495,"Ġinse":8496,"Ġdraf":8497,"ĠTro":8498,"Ġrever":8499,"Ġlake":8500,"omtav":8501,"ĠCatechism":8502,"urrent":8503,"ĠMuch":8504,"Ġgarrison":8505,"ĠHor":8506,"ĠPryce":8507,"ĠRem":8508,"emies":8509,"osom":8510,"ĠNash":8511,"Ġanth":8512,"ĠLang":8513,"Ġrib":8514,"ifies":8515,"illed":8516,"apse":8517,"uez":8518,"okovic":8519,"ĠHeaven":8520,"ĠThus":8521,"Ġscattered":8522,"Ġpartner":8523,"Ġtexts":8524,"weight":8525,"ĠUnivers":8526,"ĠAsomtav":8527,"ĠArk":8528,"Ġcanc":8529,"Ġrecordings":8530,"Ġproductions":8531,"Ġsubstitute":8532,"rophy":8533,"Ġenters":8534,"Ġ165":8535,"Ġmonuments":8536,"Ġ113":8537,"Ġexposed":8538,"Ġlandings":8539,"Ġdesigner":8540,"Ġwarning":8541,"Ġinscriptions":8542,"ĠBeet":8543,"Ġstrategy":8544,"ĠHerze":8545,"rows":8546,"Ġdriver":8547,"ĠTracy":8548,"Ġdifference":8549,"plete":8550,"Ġ1924":8551,"Ġ1925":8552,"Ġbreed":8553,"Ġdemands":8554,"Ġprofile":8555,"ĠDavis":8556,"Ġpriest":8557,"Ġsteep":8558,"Ġcondem":8559,"apping":8560,"Ġsupern":8561,"Ġfundament":8562,"ĠHarold":8563,"ĠMadrid":8564,"ĠBusiness":8565,"Ġexecuted":8566,"ĠEmmy":8567,"Ġprevented":8568,"Ġdominant":8569,"Ġsettlements":8570,"Ġuncertain":8571,"ĠDjokovic":8572,"Ġjudge":8573,"ASP":8574,"Ġpursue":8575,"Ġgraphics":8576,"Ġdemonstrated":8577,"Ġexcavations":8578,"Ġdistinctive":8579,"Ġturrets":8580,"iggs":8581,"otype":8582,"Ġtactics":8583,"ĠRailway":8584,"Ġapplication":8585,"Ġdistinguished":8586,"ĠRifles":8587,"eorological":8588,"ĠYankees":8589,"ĠNielsen":8590,"govina":8591,"ĠAsomtavruli":8592,"ĠHerzegovina":8593,"AC":8594,"EC":8595,"ij":8596,"mouth":8597,"noon":8598,"rus":8599,"uen":8600,"Ġtenth":8601,"Ġaster":8602,"inian":8603,"Ġpine":8604,"Ġpounds":8605,"Ġmbar":8606,"Ġrevers":8607,"oux":8608,"ilation":8609,"Ġforty":8610,"oli":8611,"ĠBible":8612,"imal":8613,"Ġstood":8614,"otten":8615,"ĠWomen":8616,"ĠNL":8617,"ĠLower":8618,"avel":8619,"rior":8620,"Ġcomed":8621,"ifer":8622,"Ġsure":8623,"arte":8624,"udes":8625,"ĠKong":8626,"Ġtrust":8627,"ĠVe":8628,"ĠVeer":8629,"ignment":8630,"Ġusage":8631,"ĠThose":8632,"Ġscheme":8633,"Ġafternoon":8634,"Ġoffs":8635,"Ġcenters":8636,"Ġfee":8637,"Ġfeels":8638,"Ġconsult":8639,"Ġcharity":8640,"ĠDean":8641,"Ġreleases":8642,"Ġassisted":8643,"ĠShel":8644,"fully":8645,"Ġsmooth":8646,"Ġdowntown":8647,"azines":8648,"Ġconsidering":8649,"Ġedges":8650,"Ġ1934":8651,"ĠClin":8652,"Ġdrain":8653,"Ġportrait":8654,"Ġapproval":8655,"Ġtriple":8656,"ĠMcG":8657,"Ġinitiated":8658,"Ġamongst":8659,"Ġmagazines":8660,"Ġfrust":8661,"Ġsounds":8662,"ĠGlob":8663,"ĠAnglo":8664,"Ġliked":8665,"ĠBerlin":8666,"ĠJews":8667,"ĠMadison":8668,"Ġdefenders":8669,"ĠCongo":8670,"Ġsubjects":8671,"Ġarchaeologist":8672,"Ġindicating":8673,"Ġceratops":8674,"Ġsatell":8675,"ĠOverall":8676,"Ġtournaments":8677,"Ġemergency":8678,"Ġinnov":8679,"Ġsuspended":8680,"ĠTennesse":8681,"Ġboxing":8682,"Ġtranslation":8683,"Ġsucceed":8684,"ĠOriginal":8685,"ĠIndependence":8686,"Ġsacred":8687,"Ġduty":8688,"ĠGallery":8689,"Ġcollaboration":8690,"Ġaltered":8691,"Ġpremiere":8692,"Ġstriking":8693,"Ġphilosophy":8694,"chell":8695,"ĠAlfred":8696,"ĠMurray":8697,"Ġresidential":8698,"Ġelder":8699,"borne":8700,"Ġfalse":8701,"Ġmartial":8702,"ĠHouston":8703,"Ġcongreg":8704,"ĠCorporation":8705,"Ġcommemor":8706,"ĠCeltic":8707,"Ġasteroid":8708,"ĠTennessee":8709,"cake":8710,"ois":8711,"pic":8712,"Ġtale":8713,"Ġcous":8714,"Ġfert":8715,"Ġbod":8716,"Ġbishop":8717,"Ġtoured":8718,"ĠAman":8719,"ĠAuth":8720,"ilty":8721,"ĠSAS":8722,"Ġlam":8723,"Ġnations":8724,"amount":8725,"ĠMach":8726,"ĠBat":8727,"ote":8728,"utor":8729,"Ġconclusion":8730,"ĠWag":8731,"ĠNaval":8732,"ĠNDH":8733,"agine":8734,"ĠEsh":8735,"Ġchamber":8736,"sex":8737,"ĠKen":8738,"ĠKurt":8739,"ellar":8740,"Ġroots":8741,"oko":8742,"ffield":8743,"ĠOntar":8744,"Ġ92":8745,"ĠMariana":8746,"Ġflash":8747,"ologies":8748,"Ġ09":8749,"Ġ101":8750,"ĠSheffield":8751,"Ġobl":8752,"Ġpoll":8753,"Ġreceives":8754,"Ġimpressed":8755,"ĠFran":8756,"ervative":8757,"Ġvariation":8758,"Ġguilty":8759,"ĠGrade":8760,"Ġexplo":8761,"Ġcolleagues":8762,"Ġ1000":8763,"Ġcrisis":8764,"Ġrealized":8765,"Ġcommunication":8766,"Ġdeliber":8767,"ĠRomanian":8768,"Ġordering":8769,"Ġnortheastern":8770,"ĠXenon":8771,"encing":8772,"Ġ1908":8773,"ĠNext":8774,"Ġbattlecru":8775,"Ġreducing":8776,"Ġfifty":8777,"ĠSwiss":8778,"Ġrespective":8779,"Ġreveal":8780,"Ġcrews":8781,"Ġrebuilt":8782,"Ġ1870":8783,"Ġviolent":8784,"Ġquarterback":8785,"ĠImagine":8786,"Ġoccupation":8787,"Ġtesting":8788,"ĠAgain":8789,"ĠPriest":8790,"Ġfrequent":8791,"Ġadopt":8792,"ĠFinals":8793,"ĠMountains":8794,"ĠBelg":8795,"Ġschedule":8796,"Ġrequested":8797,"Ġtalking":8798,"ĠHawaii":8799,"Ġmanufactur":8800,"ĠConservation":8801,"Ġdefinition":8802,"Ġdelivery":8803,"ĠGiants":8804,"Ġfatal":8805,"ĠVillage":8806,"Ġeliminated":8807,"ĠCubs":8808,"burgh":8809,"ĠRelease":8810,"Ġsimultaneously":8811,"ĠWicca":8812,"ĠChevaliers":8813,"ĠWagner":8814,"ĠEshmun":8815,"ĠOntario":8816,"ait":8817,"don":8818,"gars":8819,"jamin":8820,"oes":8821,"tah":8822,"yo":8823,"Ã§":8824,"nda":8825,"Ġcup":8826,"Ġpull":8827,"rog":8828,"ĠAce":8829,"ĠABC":8830,"Ġnet":8831,"Ġnurs":8832,"ĠCP":8833,"ellect":8834,"adier":8835,"ĠMant":8836,"Ġgets":8837,"ĠBah":8838,"Ġstrict":8839,"ĠHarrison":8840,"ĠPle":8841,"ĠRhys":8842,"ĠDig":8843,"ĠDog":8844,"ĠDakota":8845,"ĠNS":8846,"ĠGhost":8847,"aganda":8848,"Ġsend":8849,"ĠOreg":8850,"ĠOmar":8851,"Ġvul":8852,"oples":8853,"Ġyield":8854,"ĠStav":8855,"Ġtrick":8856,"Ġcomponents":8857,"Ġintellect":8858,"Ġclin":8859,"Ġupset":8860,"Ġspur":8861,"ĠAnne":8862,"ĠAsian":8863,"Ġpeaking":8864,"ĠLeigh":8865,"Ġ02":8866,"Ġ123":8867,"Ġ155":8868,"Ġobvious":8869,"Ġrunners":8870,"Ġoperates":8871,"rapped":8872,"Ġimpression":8873,"Ġcarri":8874,"Ġmathem":8875,"ĠCarre":8876,"Ġmetre":8877,"ĠChristine":8878,"Ġhelium":8879,"Ġvisiting":8880,"Ġrefuge":8881,"Ġ1923":8882,"Ġorganised":8883,"Ġsentences":8884,"ĠPeach":8885,"Ġshoulder":8886,"ĠEvans":8887,"aski":8888,"Ġfifteen":8889,"Ġasks":8890,"Ġrounds":8891,"Ġemployees":8892,"ĠHills":8893,"Ġpotentially":8894,"Ġjobs":8895,"Ġnewspapers":8896,"Ġkilome":8897,"ĠBenjamin":8898,"ĠHawaiian":8899,"Ġrhyme":8900,"Ġwithdrawal":8901,"Ġmechanical":8902,"Ġvenues":8903,"Ġinterpre":8904,"Ġmolecules":8905,"Ġassassination":8906,"ĠCaes":8907,"ĠAncient":8908,"ĠPulaski":8909,"ĠQueensland":8910,"ĠLabour":8911,"Ġcollapsed":8912,"Ġculmin":8913,"Ġelaborate":8914,"ĠEventually":8915,"ĠOregon":8916,"Pa":8917,"ba":8918,"xual":8919,"ÅĤ":8920,"Ġsang":8921,"Ġori":8922,"Ġwel":8923,"atropical":8924,"Ġdies":8925,"ĠSS":8926,"ĠSn":8927,"ĠSem":8928,"ĠSand":8929,"ĠCase":8930,"ĠCany":8931,"eless":8932,"ĠMit":8933,"Ġgust":8934,"oln":8935,"ĠBanks":8936,"Ġstores":8937,"uty":8938,"Ġisot":8939,"ĠPow":8940,"ĠPrest":8941,"ĠRace":8942,"ĠWing":8943,"ĠNar":8944,"ĠNob":8945,"ĠLinc":8946,"agod":8947,"umin":8948,"Ġride":8949,"ĠEric":8950,"Ġvice":8951,"Ġsuitable":8952,"illiant":8953,"apore":8954,"aku":8955,"acked":8956,"iney":8957,"ĠCharts":8958,"raia":8959,"Ġcontribution":8960,"ogy":8961,"Ġclust":8962,"Ġabol":8963,"angular":8964,"ĠSection":8965,"Ġearning":8966,"Ġremove":8967,"Ġacids":8968,"obile":8969,"ohl":8970,"Ġsurgery":8971,"Ġ163":8972,"ieties":8973,"ernon":8974,"Ġartistic":8975,"Ġexpression":8976,"Ġconstant":8977,"Ġadvancing":8978,"Ġdams":8979,"ĠPlan":8980,"ĠCommons":8981,"ĠUSS":8982,"ĠChristopher":8983,"Ġdirectors":8984,"Ġclassification":8985,"ĠTrust":8986,"Ġconflic":8987,"Ġkills":8988,"Ġsentiment":8989,"Ġpersonality":8990,"ĠWeb":8991,"Ġreferring":8992,"Ġparas":8993,"Ġparody":8994,"Ġtrouble":8995,"Ġfactory":8996,"Ġstructural":8997,"Ġputting":8998,"Ġsumm":8999,"ĠCorb":9000,"ucks":9001,"Ġvalid":9002,"ĠSupreme":9003,"Ġcreative":9004,"Ġasking":9005,"Ġrenov":9006,"atinum":9007,"Ġmachines":9008,"Ġdiagn":9009,"Ġ1830":9010,"ĠValve":9011,"ĠSingapore":9012,"Ġdrove":9013,"Ġspacecraft":9014,"Ġdispute":9015,"ĠWoodhouse":9016,"Ġcompliment":9017,"Ġboundaries":9018,"Ġdocumented":9019,"Ġtranslated":9020,"Ġinhab":9021,"Ġextratropical":9022,"Ġyoungest":9023,"ĠKorea":9024,"Ġseeking":9025,"ĠChildren":9026,"Ġenvironmental":9027,"Ġcomparison":9028,"ĠSorraia":9029,"Ġcolumns":9030,"Ġtheatrical":9031,"ĠIslamic":9032,"ĠSimilarly":9033,"Ã¶n":9034,"imetres":9035,"ekend":9036,"ĠFoundation":9037,"ĠSisler":9038,"ĠProgram":9039,"ĠCanyon":9040,"ĠLincoln":9041,"Grom":9042,"IA":9043,"NC":9044,"NL":9045,"dney":9046,"krit":9047,"mont":9048,"oard":9049,"Ã¸":9050,"Ġsample":9051,"unes":9052,"Ġcave":9053,"Ġfishing":9054,"enic":9055,"Ġinclusion":9056,"inge":9057,"ashed":9058,"Ġtopped":9059,"Ġhull":9060,"ĠTogether":9061,"ĠSant":9062,"Ġlat":9063,"Ġlies":9064,"Ġlibrary":9065,"ĠCred":9066,"ĠCress":9067,"ĠCullen":9068,"acruz":9069,"Ġbeam":9070,"ĠBad":9071,"ĠBab":9072,"ĠBidd":9073,"ĠHans":9074,"etime":9075,"ĠPf":9076,"ĠPubl":9077,"Ġalt":9078,"ĠFace":9079,"ĠDD":9080,"ĠDie":9081,"ĠWhere":9082,"ĠWASP":9083,"ĠNear":9084,"ĠNatural":9085,"ĠNett":9086,"ĠanekÄģntavÄģda":9087,"ĠLud":9088,"ĠLost":9089,"ĠJard":9090,"ĠJason":9091,"Ġrising":9092,"odore":9093,"Ġplus":9094,"Ġkit":9095,"ĠKnow":9096,"Ġnotice":9097,"ĠChampions":9098,"Ġdisagre":9099,"Ġenzy":9100,"Ġspending":9101,"ugu":9102,"inder":9103,"Ġproduces":9104,"Ġprint":9105,"Ġsubmitted":9106,"Ġgray":9107,"Ġcoff":9108,"enden":9109,"ĠBriggs":9110,"Ġcompleting":9111,"Ġbridges":9112,"ĠConc":9113,"ennium":9114,"byter":9115,"Ġreflected":9116,"Ġtrials":9117,"Ġexplain":9118,"Ġorganisation":9119,"Ġpersonally":9120,"porarily":9121,"Ġexpert":9122,"Ġbases":9123,"Ġanthem":9124,"Ġtemporarily":9125,"Ġtwent":9126,"Ġcommunications":9127,"Ġsolar":9128,"Ġrepresentation":9129,"Ġprogramming":9130,"Ġ1907":9131,"Ġrevised":9132,"Ġprofessor":9133,"Ġswim":9134,"Ġsuperv":9135,"Ġfalls":9136,"Ġarmament":9137,"ĠSym":9138,"Ġcollapse":9139,"ĠCooper":9140,"Ġhonour":9141,"Ġremoval":9142,"Ġarchaeology":9143,"ĠVeracruz":9144,"Ġquestions":9145,"ĠPrix":9146,"ĠPrize":9147,"Ġbirthday":9148,"Ġsemif":9149,"Ġfavorable":9150,"Ġprepare":9151,"Ġ766":9152,"Ġpowered":9153,"Ġsculptures":9154,"ĠLouisiana":9155,"ĠSpecies":9156,"Ġbattleships":9157,"ĠFurthermore":9158,"ĠObser":9159,"Ġvertical":9160,"Ġencountered":9161,"Ġsegment":9162,"ĠIngres":9163,"ĠChronicles":9164,"ĠTelugu":9165,"ĠSanskrit":9166,"Ġsatellite":9167,"ĠBelgium":9168,"ĠCresswell":9169,"ĠBiddenden":9170,"ĠNettles":9171,"ĠJardine":9172,"eign":9173,"gets":9174,"ract":9175,"ta":9176,"Ġï":9177,"Ġump":9178,"Ġsailed":9179,"Ġwives":9180,"Ġwishes":9181,"Ġchest":9182,"itively":9183,"Ġfoss":9184,"Ġfitted":9185,"Ġbom":9186,"Ġbarr":9187,"Ġphen":9188,"Ġhidden":9189,"ĠTok":9190,"ĠSony":9191,"elle":9192,"urally":9193,"ĠMir":9194,"ĠBald":9195,"irates":9196,"ĠDers":9197,"ĠDud":9198,"ulu":9199,"Ġhem":9200,"agogue":9201,"ĠJun":9202,"ewise":9203,"Ġshares":9204,"ĠâĢĿ":9205,"Ġtru":9206,"ĠChron":9207,"Ġuniform":9208,"ieth":9209,"ansfield":9210,"Ġjunior":9211,"overeign":9212,"Ġupgraded":9213,"ĠYo":9214,"ĠYouth":9215,"Ġprefect":9216,"Ġpretty":9217,"Ġevident":9218,"enses":9219,"Ġmeters":9220,"Ġcanal":9221,"Ġpublishing":9222,"Ġindeed":9223,"Ġ03":9224,"Ġsurge":9225,"phoon":9226,"Ġmainland":9227,"Ġorigins":9228,"erto":9229,"Ġgenera":9230,"Ġrepair":9231,"Ġweekly":9232,"minster":9233,"Ġarriving":9234,"Ġ1922":9235,"Ġslip":9236,"Ġtraded":9237,"vesinje":9238,"Ġjoining":9239,"ĠWestminster":9240,"ĠXII":9241,"incial":9242,"Ġcharted":9243,"ĠNevesinje":9244,"ĠRegister":9245,"Ġconvention":9246,"ĠMagn":9247,"Ġhighways":9248,"Ġarmored":9249,"Ġbiological":9250,"Ġnominations":9251,"Ġdiscussion":9252,"Ġobjectives":9253,"ĠSocial":9254,"Ġkeeping":9255,"Ġcoinc":9256,"ĠAnti":9257,"Ġinvestigation":9258,"Ġboys":9259,"Ġstruggled":9260,"ĠErnest":9261,"Ġpleasure":9262,"Ġemphasis":9263,"Ġneutral":9264,"Ġbeliefs":9265,"ĠMichel":9266,"Ġpulled":9267,"Ġaccomplish":9268,"Ġchoose":9269,"Ġassembled":9270,"Ġupdated":9271,"ĠJacob":9272,"ĠCampbell":9273,"Ġdemolished":9274,"ĠARVN":9275,"Ġempire":9276,"ĠSioux":9277,"Ġunderwent":9278,"howitz":9279,"Ġillegal":9280,"ĠPattycake":9281,"Ġphrase":9282,"ĠBennett":9283,"ĠClinton":9284,"ĠAmanita":9285,"ĠDigital":9286,"ĠDershowitz":9287,"ĠDudley":9288,"ĠChrono":9289,"SP":9290,"bles":9291,"nels":9292,"rich":9293,"tropical":9294,"Ġax":9295,"inations":9296,"orable":9297,"Ġcateg":9298,"Ġfusion":9299,"Ġfasc":9300,"Ġbare":9301,"Ġpion":9302,"Ġpace":9303,"Ġpages":9304,"Ġdict":9305,"ĠTony":9306,"Ġthrew":9307,"Ġlanes":9308,"ĠCater":9309,"acre":9310,"acles":9311,"Ġbeings":9312,"ĠIan":9313,"ivated":9314,"olithic":9315,"ĠBor":9316,"ĠBuilding":9317,"otte":9318,"ĠPohl":9319,"Ġwhilst":9320,"Ġalph":9321,"ĠWander":9322,"ĠLet":9323,"ersed":9324,"Ġsect":9325,"Ġsuit":9326,"Ġchrom":9327,"Ġexport":9328,"Ġshift":9329,"Ġshorter":9330,"ĠUnd":9331,"Ġunlik":9332,"Ġunnamed":9333,"Ġrotation":9334,"Ġclay":9335,"Ġabilities":9336,"Ġresolution":9337,"ĠAlb":9338,"Ġdisband":9339,"Ġfinale":9340,"Ġfeeding":9341,"Ġpeoples":9342,"Ġassess":9343,"Ġquant":9344,"Ġ170":9345,"ĠIndones":9346,"ĠZanz":9347,"Ġwarn":9348,"Ġcarries":9349,"aho":9350,"Ġadvice":9351,"ĠEurop":9352,"Ġpublications":9353,"ĠCanning":9354,"Ġmargin":9355,"Ġeventual":9356,"Ġpresentation":9357,"ĠWeir":9358,"Ġstarring":9359,"ĠWithout":9360,"brace":9361,"ĠCountry":9362,"Ġprofit":9363,"ĠParks":9364,"ĠJackets":9365,"Ġtourist":9366,"ĠMagic":9367,"Ġfacility":9368,"Ġreduction":9369,"ĠKeith":9370,"Ġstrip":9371,"ĠSwitzer":9372,"Ġelectron":9373,"Ġ1861":9374,"Ġmerely":9375,"Ġ360":9376,"Ġcertainly":9377,"Ġdaughters":9378,"Ġpercentage":9379,"Ġcontroller":9380,"Ġrecovery":9381,"Ġarchitectural":9382,"ĠCharlotte":9383,"ĠColumbus":9384,"Ġneighb":9385,"Ġsoutheastern":9386,"Ġpunishment":9387,"ĠDefense":9388,"Ġillustrated":9389,"Ġmeasurements":9390,"Ġadvertis":9391,"ĠArgentine":9392,"Ġaggreg":9393,"ĠUsher":9394,"ĠSweden":9395,"Ġconversation":9396,"Ġreforms":9397,"ĠIdaho":9398,"ĠKirk":9399,"Ġnegotiations":9400,"Ġsurrender":9401,"Ġcinema":9402,"ĠAbbey":9403,"Ġappointment":9404,"ĠWWF":9405,"Ġibis":9406,"ropolitan":9407,"ĠâĤ¹":9408,"Ġneighborhood":9409,"Ġenthus":9410,"ĠCaesar":9411,"ĠMitchell":9412,"ĠPreston":9413,"ĠWanderers":9414,"Ġunlikely":9415,"ĠZanzib":9416,"ĠSwitzerland":9417,"Tube":9418,"aired":9419,"father":9420,"hang":9421,"uart":9422,"vant":9423,"yram":9424,"Ġtub":9425,"Ġtelling":9426,"inction":9427,"inÃ¡":9428,"Ġsq":9429,"atically":9430,"Ġcotton":9431,"arant":9432,"Ġmines":9433,"Ġduration":9434,"Ġhosp":9435,"leton":9436,"ĠTales":9437,"oust":9438,"ĠSab":9439,"ĠSign":9440,"acter":9441,"Ġonwards":9442,"Ġongoing":9443,"urst":9444,"ĠMain":9445,"Ġgap":9446,"Ġforth":9447,"ĠBird":9448,"ĠBush":9449,"Ġstellar":9450,"usic":9451,"otes":9452,"ĠPak":9453,"ĠFle":9454,"ĠFreak":9455,"ĠDover":9456,"ĠDahl":9457,"ĠWN":9458,"ĠNon":9459,"ĠNel":9460,"Ġanime":9461,"ĠJen":9462,"odrom":9463,"Ġvs":9464,"Ġsuicide":9465,"oren":9466,"opl":9467,"artney":9468,"Ġchain":9469,"Ġchicks":9470,"ĠUpp":9471,"ĠKy":9472,"ĠStuart":9473,"ishops":9474,"iao":9475,"soft":9476,"ĠHealth":9477,"Ġrecall":9478,"Ġoffering":9479,"Ġenemies":9480,"ĠYellow":9481,"osexual":9482,"ensions":9483,"Ġthemed":9484,"Ġacute":9485,"Ġbuy":9486,"Ġsupplement":9487,"Ġentertain":9488,"Ġdecisions":9489,"Ġ117":9490,"Ġsigns":9491,"Ġbrigades":9492,"embers":9493,"ĠIsesi":9494,"Ġadvoc":9495,"Ġstring":9496,"ĠCarmel":9497,"ĠHerald":9498,"ĠHeritage":9499,"Ġguid":9500,"ĠChristians":9501,"ĠFeel":9502,"Ġconfront":9503,"Ġcontrad":9504,"Ġcontrols":9505,"ĠParamount":9506,"Ġhistorically":9507,"Ġsignificance":9508,"ospel":9509,"ĠAmb":9510,"Ġtooth":9511,"Ġgenetic":9512,"Ġreader":9513,"Ġtravelled":9514,"ĠYouTube":9515,"Ġhelping":9516,"Ġfacil":9517,"Ġprofession":9518,"Ġclosure":9519,"Ġcircle":9520,"Ġ350":9521,"Ġwider":9522,"Ġdevast":9523,"ĠMadero":9524,"Ġillness":9525,"Ġrebell":9526,"ĠMcCartney":9527,"ĠImm":9528,"ĠEverton":9529,"Ġadapt":9530,"ĠBelgian":9531,"Ġbatteries":9532,"ĠTwenty":9533,"ĠInterchange":9534,"ĠDelaware":9535,"Ġmagnetic":9536,"Ġelevation":9537,"Ġceremon":9538,"Ġpatterns":9539,"Ġaggressive":9540,"Ġwaiting":9541,"ĠNazi":9542,"Ġmobile":9543,"ĠGardner":9544,"ĠProvince":9545,"ĠAlberta":9546,"Ġdepicting":9547,"Ġpregnancy":9548,"Ġgravity":9549,"ĠHoover":9550,"ĠLessing":9551,"ĠWalker":9552,"Ġdisappoin":9553,"Ġaccompanying":9554,"ĠToninÃ¡":9555,"ĠNadal":9556,"ĠCredits":9557,"ĠUpper":9558,"bra":9559,"ean":9560,"face":9561,"iy":9562,"water":9563,"wick":9564,"where":9565,"Ġwish":9566,"Ġcategory":9567,"Ġtom":9568,"Ġdiver":9569,"Ġhook":9570,"ĠTax":9571,"ĠAT":9572,"ĠSin":9573,"star":9574,"Ġliqu":9575,"ĠMk":9576,"ĠMun":9577,"olia":9578,"tered":9579,"ĠBow":9580,"Ġstock":9581,"Ġstead":9582,"herry":9583,"ĠRom":9584,"ĠRivers":9585,"ĠFem":9586,"ĠFif":9587,"ĠDisc":9588,"ĠLas":9589,"ĠLane":9590,"Ġriding":9591,"rik":9592,"Ġsup":9593,"arded":9594,"Ġexclud":9595,"Ġshirt":9596,"ĠKate":9597,"Ġtrapped":9598,"ĠHeart":9599,"imeter":9600,"Ġpermission":9601,"Ġjury":9602,"Ġspots":9603,"Ġencl":9604,"Ġshear":9605,"ĠSeattle":9606,"Ġacycl":9607,"roph":9608,"arsh":9609,"Ġgrave":9610,"Ġsymp":9611,"erne":9612,"Ġsignal":9613,"Ġterrain":9614,"ĠAllosaurus":9615,"Ġpromin":9616,"ĠAdela":9617,"ĠAndre":9618,"rett":9619,"Ġcommands":9620,"Ġcommanders":9621,"Ġrequires":9622,"ĠMcE":9623,"ĠPriv":9624,"Ġsimilarly":9625,"itarian":9626,"ĠPerform":9627,"Ġfreedom":9628,"ĠCentre":9629,"Ġ1902":9630,"Ġdestroyer":9631,"Ġ1895":9632,"Ġvalues":9633,"Ġclosing":9634,"Ġhyg":9635,"ĠCrusad":9636,"Ġraising":9637,"ĠSydney":9638,"ĠMadonna":9639,"ĠKhan":9640,"Ġdonated":9641,"Ġexecution":9642,"Ġindicates":9643,"Ġembarked":9644,"Ġpairs":9645,"Ġparent":9646,"Ġgirls":9647,"Ġpolicies":9648,"Ġsearching":9649,"ĠCritics":9650,"Ġplatoon":9651,"Ġconcentrated":9652,"Ġprinted":9653,"Ġpreparing":9654,"Ġuniversities":9655,"Ġconnecting":9656,"Ġconversion":9657,"ĠObserv":9658,"Ġfarmers":9659,"ĠHeadquarters":9660,"ĠLeonard":9661,"Ġaimed":9662,"Ġdubbed":9663,"Ġexactly":9664,"Ġdoctrine":9665,"Ġaccurate":9666,"Ġdecorated":9667,"Ġhydrogen":9668,"penter":9669,"ĠArkansas":9670,"Ġcancelled":9671,"Ġfundamental":9672,"ĠStavanger":9673,"Ġconflicts":9674,"Ġphenomen":9675,"Ġacyclic":9676,"ĠAdelaide":9677,"bound":9678,"cour":9679,"dream":9680,"han":9681,"lock":9682,"oom":9683,"xic":9684,"Ã£":9685,"Ġwore":9686,"Ġfles":9687,"isle":9688,"Ġbore":9689,"Ġinfer":9690,"Ġinning":9691,"anag":9692,"Ġtouring":9693,"Ġmental":9694,"rose":9695,"Ġdense":9696,"Ġdanger":9697,"ĠhPa":9698,"lee":9699,"Ġreop":9700,"Ġreaches":9701,"Ġnave":9702,"Ġbears":9703,"Ġbeating":9704,"Ġbeats":9705,"ĠMaur":9706,"Ġgift":9707,"ĠHugh":9708,"ĠHNC":9709,"ĠPanz":9710,"ĠRick":9711,"ĠFood":9712,"ĠNav":9713,"Ġanch":9714,"Ġseats":9715,"Ġrushing":9716,"ĠEight":9717,"Ġprosec":9718,"ĠIntern":9719,"atever":9720,"ipes":9721,"iang":9722,"ĠVic":9723,"Ġabroad":9724,"oken":9725,"ffling":9726,"pled":9727,"Ġjew":9728,"Ġovert":9729,"active":9730,"Ġevolved":9731,"oyd":9732,"ĠMars":9733,"Ġpositively":9734,"Ġintercept":9735,"Ġapprec":9736,"ĠLeeds":9737,"Ġ01":9738,"Ġ125":9739,"Ġcaps":9740,"Ġbacking":9741,"Ġtransmission":9742,"Ġcontinental":9743,"Ġoperas":9744,"Ġcharacteristic":9745,"ĠChristi":9746,"Ġphone":9747,"ĠMcD":9748,"Ġfewer":9749,"Ġcrash":9750,"Ġstrongest":9751,"ĠAbd":9752,"Ġsolution":9753,"ĠDescription":9754,"Ġdetected":9755,"Ġaffil":9756,"ĠPolit":9757,"Ġfriendly":9758,"Ġsket":9759,"Ġtenure":9760,"Ġballad":9761,"Ġfunctions":9762,"ĠCorpus":9763,"Ġranks":9764,"ĠMorgan":9765,"grad":9766,"Ġanimated":9767,"ĠSerbs":9768,"ĠHarry":9769,"ĠDaydream":9770,"thodon":9771,"Ġcivilians":9772,"Ġwithdrawn":9773,"Ġ1840":9774,"Ġfailing":9775,"ĠDonald":9776,"ĠAngelou":9777,"ĠJeremy":9778,"Ġtemperatures":9779,"Ġcredit":9780,"Ġcredits":9781,"Ġunclear":9782,"Ġcounterp":9783,"Ġlogic":9784,"ĠBoys":9785,"Ġsevent":9786,"Ġpilots":9787,"ĠSurvey":9788,"Ġpursuit":9789,"Ġinternation":9790,"ĠFrancis":9791,"ĠHawaiÊ»":9792,"Ġcompositions":9793,"Ġninet":9794,"ĠBooks":9795,"Ġharbour":9796,"Ġqualified":9797,"Ġsteps":9798,"Ġprisoners":9799,"ĠNightingale":9800,"Ġmelody":9801,"Ġmolecular":9802,"Ġmountains":9803,"ĠDerffling":9804,"Ġsolely":9805,"ĠFalls":9806,"Ġinteractions":9807,"Ġwickets":9808,"ĠBroadway":9809,"Ġsleep":9810,"Ġwealthy":9811,"ĠWyoming":9812,"Ġleukemia":9813,"ĠWatson":9814,"Ġsympt":9815,"Ġvegetation":9816,"ĠBulgar":9817,"ĠHungarian":9818,"Ġmaintaining":9819,"ĠEccl":9820,"Ġashore":9821,"ĠFernandez":9822,"ĠTigers":9823,"Ġvertex":9824,"Ġtissue":9825,"ĠDynasty":9826,"Ġcousin":9827,"Ġflesh":9828,"ĠPanzer":9829,"ĠInternet":9830,"ĠHawaiÊ»i":9831,"ĠDerfflinger":9832,"bing":9833,"equ":9834,"fra":9835,"hire":9836,"iac":9837,"po":9838,"power":9839,"ygen":9840,"zong":9841,"Ġid":9842,"Ġacted":9843,"rehens":9844,"enger":9845,"esters":9846,"Ġinher":9847,"alf":9848,"ingray":9849,"Ġdual":9850,"entle":9851,"ĠActor":9852,"street":9853,"omic":9854,"ĠCO":9855,"ĠCricket":9856,"Ġgaining":9857,"ĠBorn":9858,"ĠBarn":9859,"ĠBatter":9860,"ows":9861,"ĠHop":9862,"aya":9863,"ĠPoly":9864,"ĠRap":9865,"ĠDub":9866,"ĠWelling":9867,"ĠWitch":9868,"ĠGot":9869,"ĠGael":9870,"ĠLiving":9871,"ĠLibrary":9872,"estyle":9873,"Ġchampions":9874,"Ġplatinum":9875,"ĠUtah":9876,"ĠKody":9877,"Ġcompens":9878,"Ġclothes":9879,"ĠHeavy":9880,"Ġpermitted":9881,"ector":9882,"ective":9883,"ĠAlmost":9884,"Ġdisrupt":9885,"ultan":9886,"Ġevolution":9887,"oyle":9888,"Ġassembly":9889,"Ġamph":9890,"Ġsurprise":9891,"Ġ105":9892,"Ġnumbered":9893,"tenance":9894,"Ġ127":9895,"Ġ168":9896,"Ġ114":9897,"Ġbrain":9898,"Ġobtain":9899,"ĠMaya":9900,"ĠZoo":9901,"aza":9902,"Ġsuccession":9903,"Ġsuccessive":9904,"ĠAdminist":9905,"Ġrestore":9906,"Ġincreases":9907,"Ġreviewed":9908,"Ġhanded":9909,"eltown":9910,"Ġstarter":9911,"Ġcoverage":9912,"Ġanticip":9913,"ĠRomania":9914,"Ġ1903":9915,"ĠNeil":9916,"Ġgoods":9917,"Ġcougars":9918,"Ġideal":9919,"Ġcyt":9920,"Ġoccurring":9921,"Ġrevival":9922,"Ġidentify":9923,"Ġanimation":9924,"Ġ1889":9925,"Ġmeasuring":9926,"ĠArabs":9927,"Ġheavier":9928,"Ġcruisers":9929,"ĠYears":9930,"Ġobservation":9931,"Ġconsistent":9932,"ĠBradstreet":9933,"Ġseriously":9934,"ĠTrees":9935,"Ġtargets":9936,"Ġreinforced":9937,"ĠAntimony":9938,"Ġgrandfather":9939,"Ġlifetime":9940,"Ġwalking":9941,"Ġoxygen":9942,"Ġparliamentary":9943,"ĠSora":9944,"Ġbeauty":9945,"Ġvirtually":9946,"Ġbowling":9947,"ĠJurchens":9948,"ĠCyrus":9949,"Ġownership":9950,"Ġpregnant":9951,"Ġrelegated":9952,"ĠTransportation":9953,"ĠBaseball":9954,"ĠBedell":9955,"Ġappropriate":9956,"schild":9957,"ĠHampshire":9958,"Ġadministrative":9959,"Ġphotographs":9960,"ĠRothschild":9961,"ĠAuthor":9962,"ĠMantell":9963,"Ġinterpreted":9964,"ĠXIII":9965,"yramid":9966,"fraid":9967,"ĠWellington":9968,"ĠGaelic":9969,"CU":9970,"jo":9971,"ras":9972,"worth":9973,"inus":9974,"Ġtherap":9975,"Ġsings":9976,"Ġsized":9977,"unch":9978,"ori":9979,"Ġcode":9980,"itia":9981,"Ġfame":9982,"Ġfault":9983,"enous":9984,"Ġbon":9985,"Ġban":9986,"aration":9987,"Ġtours":9988,"Ġtoler":9989,"Ġmir":9990,"rous":9991,"icul":9992,"Ġhills":9993,"ĠSon":9994,"ĠSet":9995,"stal":9996,"Ġlaugh":9997,"Ġloud":9998,"Ġnaming":9999,"ĠCas":10000,"ĠMix":10001,"ĠIOC":10002,"Ġgar":10003,"Ġgang":10004,"olve":10005,"ĠPC":10006,"ĠPot":10007,"ĠDS":10008,"ĠDot":10009,"ĠDram":10010,"ĠData":10011,"ĠNat":10012,"ĠLooking":10013,"Ġseized":10014,"Ġrid":10015,"Ġrains":10016,"ĠOak":10017,"ĠEg":10018,"ĠEconom":10019,"ĠEtty":10020,"udo":10021,"ĠKau":10022,"ĠKÅį":10023,"oster":10024,"ormal":10025,"Ġadmin":10026,"Ġperceived":10027,"Ġagency":10028,"Ġmanip":10029,"Ġjet":10030,"acts":10031,"Ġattitude":10032,"Ġfeud":10033,"Ġ83":10034,"Ġcancel":10035,"Ġregistered":10036,"Ġdoctor":10037,"Ġgrade":10038,"Ġbacked":10039,"Ġdiff":10040,"Ġcontinuous":10041,"Ġrunway":10042,"Ġdepiction":10043,"Ġdownstream":10044,"Ġdistrib":10045,"Ġinfection":10046,"Ġsixteen":10047,"Ġvaried":10048,"Ġguides":10049,"Ġhelps":10050,"ĠTristan":10051,"issioned":10052,"Ġbelieving":10053,"ĠGrace":10054,"ĠRoom":10055,"Ġexplicit":10056,"Ġengagement":10057,"Ġcapturing":10058,"ĠManuel":10059,"Ġ230":10060,"Ġauthorized":10061,"Ġsitting":10062,"Ġrepresentatives":10063,"Ġballs":10064,"Ġpitching":10065,"Ġpromotional":10066,"Ġrevived":10067,"regular":10068,"Ġcommenting":10069,"Ġaudition":10070,"Ġarmies":10071,"Ġflooded":10072,"ĠChristianity":10073,"Ġexcell":10074,"Ġgolden":10075,"ĠImport":10076,"Ġhoused":10077,"Ġ1849":10078,"ĠCollection":10079,"Ġparticipate":10080,"Ġblocked":10081,"ĠStudies":10082,"legraph":10083,"Ġsynagogue":10084,"Ġautom":10085,"Ġdispat":10086,"Ġvotes":10087,"Ġunderstood":10088,"Ġheroes":10089,"Ġhabitats":10090,"Ġsecretary":10091,"Ġconstitu":10092,"Ġquestioned":10093,"Ġsubsid":10094,"Ġtasked":10095,"Ġsporting":10096,"Ġchampionships":10097,"ĠContem":10098,"Ġreactions":10099,"Ġirregular":10100,"ĠHalo":10101,"Ġdeparted":10102,"ĠPalestinian":10103,"Ġresemble":10104,"ĠUlt":10105,"ĠColdrum":10106,"Ġhamper":10107,"ĠOhio":10108,"Ġpuzzles":10109,"Ġpounder":10110,"ĠMLB":10111,"Ġsuddenly":10112,"ĠRhodesian":10113,"Ġbalance":10114,"Ġdisplaced":10115,"Ġproportion":10116,"ĠJoyful":10117,"Ġclothing":10118,"Ġmanuscripts":10119,"ĠMargaret":10120,"Ġannouncement":10121,"Ġbodyline":10122,"Ġkilometers":10123,"Ġhospitals":10124,"Ġentertainment":10125,"cover":10126,"iad":10127,"kÃ¶n":10128,"rep":10129,"Ġwolf":10130,"Ġbanks":10131,"anville":10132,"Ġpap":10133,"Ġpistol":10134,"Ġdod":10135,"ĠTit":10136,"ĠAA":10137,"ĠSay":10138,"ĠShip":10139,"Ġech":10140,"ĠCant":10141,"ĠCome":10142,"eloc":10143,"ĠMort":10144,"ĠIowa":10145,"terior":10146,"ĠBÃ":10147,"ĠBuck":10148,"ĠBapt":10149,"thren":10150,"Ġstim":10151,"ĠHannah":10152,"ĠPan":10153,"ĠPur":10154,"ĠProm":10155,"ĠPier":10156,"ĠRÃ¤":10157,"ĠDor":10158,"ĠDick":10159,"ĠDennis":10160,"ĠWik":10161,"ĠWrestling":10162,"ĠWrapped":10163,"ĠNM":10164,"ĠGround":10165,"ĠList":10166,"agen":10167,"Ġsew":10168,"Ġrays":10169,"ĠExt":10170,"Ġvir":10171,"Ġcomponent":10172,"Ġcompilation":10173,"Ġherd":10174,"Ġcler":10175,"ĠHeb":10176,"ondheim":10177,"Ġscar":10178,"Ġscorer":10179,"ricts":10180,"ĠReb":10181,"ĠDeep":10182,"Ġflies":10183,"Ġnoble":10184,"Ġqueen":10185,"Ġaccum":10186,"Ġcoaching":10187,"Ġepic":10188,"Ġmainstream":10189,"ĠShell":10190,"Ġ174":10191,"Ġdistances":10192,"Ġdistricts":10193,"anches":10194,"azer":10195,"Ġpassion":10196,"ĠBlu":10197,"Ġmetall":10198,"Ġedited":10199,"ashi":10200,"ikkÃ¶n":10201,"ĠTrondheim":10202,"Ġapproaches":10203,"Ġrefere":10204,"Ġreplied":10205,"Ġarchbishop":10206,"Ġvictim":10207,"Ġ240":10208,"Ġaffairs":10209,"Ġfactor":10210,"Ġprize":10211,"ĠMorning":10212,"Ġlacking":10213,"Ġveter":10214,"ĠMonkey":10215,"Ġindustries":10216,"mingham":10217,"Ġruler":10218,"Ġzomb":10219,"ĠMcCar":10220,"ĠSlayer":10221,"Ġmemories":10222,"Ġarrangements":10223,"ĠCampaign":10224,"ĠForeign":10225,"ĠSky":10226,"ĠSkinner":10227,"barian":10228,"Ġdependent":10229,"ĠInterstate":10230,"Ġkickoff":10231,"Ġtouchdowns":10232,"Ġsalv":10233,"ĠHaitian":10234,"Ġrescued":10235,"Ġcandidates":10236,"ĠNCAA":10237,"Ġroller":10238,"Ġflew":10239,"ĠBirmingham":10240,"Ġteachers":10241,"Ġshrine":10242,"Ġcomprised":10243,"Ġfastest":10244,"ĠCreutz":10245,"ĠGregory":10246,"blazer":10247,"Ġaerodrom":10248,"Ġundertaken":10249,"Ġdisturbance":10250,"ĠHonor":10251,"Ġvicinity":10252,"ĠHellblazer":10253,"Ġstrategic":10254,"Ġabsorbed":10255,"ĠBosn":10256,"ĠPalmyrene":10257,"Ġtickets":10258,"Ġrestrictions":10259,"ĠStaley":10260,"Ġmystery":10261,"ĠVegas":10262,"Ġmathemat":10263,"ĠTokyo":10264,"ĠZanzibar":10265,"ĠEcclestone":10266,"ĠRÃ¤ikkÃ¶n":10267,"ĠRÃ¤ikkÃ¶nen":10268,"book":10269,"fe":10270,"la":10271,"pir":10272,"pse":10273,"wan":10274,"zona":10275,"¬nh":10276,"Æ°":10277,"Ġtrough":10278,"Ġtalent":10279,"ini":10280,"inness":10281,"erm":10282,"Ġworn":10283,"athered":10284,"Ġcrick":10285,"Ġcraf":10286,"Ġfru":10287,"Ġpp":10288,"Ġpunt":10289,"Ġmac":10290,"rot":10291,"Ġda":10292,"Ġdust":10293,"Ġdiamond":10294,"Ġhur":10295,"ĠTree":10296,"Ġreag":10297,"ĠAub":10298,"ĠAges":10299,"ĠCit":10300,"uras":10301,"urance":10302,"ĠMack":10303,"ĠMoon":10304,"ĠIv":10305,"Ġgor":10306,"olence":10307,"imer":10308,"ĠHair":10309,"oted":10310,"ĠPam":10311,"ĠPole":10312,"ĠRul":10313,"ĠFul":10314,"ĠFather":10315,"ĠDod":10316,"ĠDoo":10317,"Ġatop":10318,"romet":10319,"ĠNine":10320,"ĠLad":10321,"ĠLind":10322,"ĠLiter":10323,"Ġhearing":10324,"Ġsending":10325,"Ġrig":10326,"oded":10327,"Ġvital":10328,"Ġaboard":10329,"Ġadmir":10330,"ĠThak":10331,"arest":10332,"achute":10333,"wegian":10334,"Ġspeaker":10335,"ensively":10336,"oints":10337,"ĠReagan":10338,"ilda":10339,"alsa":10340,"veland":10341,"Ġrelatives":10342,"Ġconsent":10343,"ĠMarie":10344,"Ġfourteen":10345,"Ġlocally":10346,"Ġpole":10347,"Ġpoets":10348,"ĠShim":10349,"ĠShadow":10350,"Ġpopul":10351,"Ġmaintenance":10352,"ĠBright":10353,"Ġminers":10354,"Ġbrut":10355,"Ġbrilliant":10356,"emble":10357,"ĠIsle":10358,"ĠZagre":10359,"Ġmatters":10360,"Ġinsurg":10361,"ĠPlaces":10362,"Ġconcession":10363,"Ġdrinking":10364,"Ġextinct":10365,"Ġextensively":10366,"ĠTrue":10367,"Ġjustice":10368,"Ġopposing":10369,"Ġmedal":10370,"ĠÂµ":10371,"ĠMcM":10372,"Ġmyster":10373,"Ġmembrane":10374,"luence":10375,"Ġbehalf":10376,"Ġcurved":10377,"Ġ1901":10378,"Ġ1906":10379,"ficial":10380,"Ġgenes":10381,"ĠFederation":10382,"Ġpraising":10383,"arris":10384,"iscus":10385,"ĠHighland":10386,"Ġredes":10387,"hemical":10388,"Ġtrend":10389,"Ġaudio":10390,"ĠExper":10391,"Ġarguing":10392,"Ġcutting":10393,"Ġhitting":10394,"Ġterritorial":10395,"Ġmachinery":10396,"Ġbusinesses":10397,"Ġescaped":10398,"Ġpenet":10399,"Ġtraveling":10400,"Ġchapters":10401,"Ġarchaeologists":10402,"ĠSingh":10403,"Ġdenomin":10404,"ĠTommy":10405,"guard":10406,"Ġobservatory":10407,"ĠMeteorological":10408,"Ġconsistently":10409,"ĠQuiney":10410,"Ġbombing":10411,"Ġmarketing":10412,"Ġconcepts":10413,"ĠNorwegian":10414,"Ġ1819":10415,"Ġpuppet":10416,"Ġexhibition":10417,"Ġrequirements":10418,"Ġuniverse":10419,"ĠSenator":10420,"Ġfragment":10421,"Ġwait":10422,"Ġextending":10423,"Ġpictures":10424,"Ġbatsmen":10425,"ĠMatthew":10426,"Ġagriculture":10427,"ĠCambodian":10428,"Ġexclusive":10429,"ĠBruce":10430,"Ġlaboratory":10431,"ĠReturn":10432,"Ġsurrend":10433,"Ġaerial":10434,"ĠArizona":10435,"ĠKennedy":10436,"ĠArchaeological":10437,"ĠCleveland":10438,"Ġliner":10439,"Ġrubber":10440,"ĠHughes":10441,"Ġjuven":10442,"ĠHobbs":10443,"Ġrecurring":10444,"Ġconjunction":10445,"ĠProfessor":10446,"ĠBeeton":10447,"ĠCorbet":10448,"Ġcomplimented":10449,"Ġtubes":10450,"Ġcrickets":10451,"ĠZagreb":10452,"CW":10453,"PA":10454,"gers":10455,"iography":10456,"iÃ¨":10457,"iÄĩ":10458,"ng":10459,"rad":10460,"tical":10461,"zo":10462,"Ġtaste":10463,"inaw":10464,"eries":10465,"Ġsqu":10466,"una":10467,"orage":10468,"Ġcosm":10469,"Ġfaster":10470,"Ġfulf":10471,"esh":10472,"Ġpushing":10473,"Ġpyramid":10474,"Ġmand":10475,"Ġhapp":10476,"Ġreper":10477,"Ġrecept":10478,"Ġreven":10479,"Ġrevenue":10480,"ĠAf":10481,"ĠSox":10482,"Ġlad":10483,"Ġliv":10484,"ĠCond":10485,"ĠIA":10486,"Ġgene":10487,"olin":10488,"iger":10489,"Ġstick":10490,"ĠHong":10491,"ĠHurricanes":10492,"ĠPagan":10493,"ĠRa":10494,"Ġalive":10495,"ĠFut":10496,"ĠFiles":10497,"ĠDance":10498,"ĠDoyle":10499,"osity":10500,"ĠNASA":10501,"ĠGill":10502,"ĠLam":10503,"ĠLiao":10504,"ĠJoint":10505,"Ġdeals":10506,"Ġracing":10507,"ĠOw":10508,"Ġexceed":10509,"ĠKyle":10510,"ĠStars":10511,"Ġtrains":10512,"Ġtrails":10513,"cles":10514,"ĠChampion":10515,"ogram":10516,"Ġusers":10517,"Ġusual":10518,"Ġabuse":10519,"ĠAlg":10520,"overy":10521,"Ġspawn":10522,"Ġenorm":10523,"aceous":10524,"Ġsheep":10525,"Ġcommenced":10526,"Ġallocated":10527,"Ġweekend":10528,"ensis":10529,"Ġcentimetres":10530,"ribi":10531,"ĠReines":10532,"underst":10533,"Ġcanon":10534,"ĠMarge":10535,"ĠComedy":10536,"Ġacoust":10537,"Ġapply":10538,"Ġdecomm":10539,"Ġpresents":10540,"phrey":10541,"ĠJohnny":10542,"Ġbrand":10543,"Ġcouldn":10544,"Ġoperational":10545,"Ġprovincial":10546,"Ġmature":10547,"Ġsimpl":10548,"Ġadvised":10549,"ĠCarpenter":10550,"ĠPlateau":10551,"Ġgovernments":10552,"Ġguide":10553,"asha":10554,"ĠGuine":10555,"Ġtracked":10556,"Ġexplore":10557,"Ġexploration":10558,"Ġsugar":10559,"ĠMcN":10560,"Ġlegacy":10561,"Ġcourses":10562,"Ġmyself":10563,"Ġpropaganda":10564,"Ġ220":10565,"Ġ261":10566,"Ġstatements":10567,"ĠAtlÃ©t":10568,"Ġ1897":10569,"Ġrocks":10570,"rieved":10571,"Ġpredicted":10572,"Ġlacked":10573,"ĠSerb":10574,"Ġhostile":10575,"ĠPartington":10576,"Ġdevice":10577,"Ġmotif":10578,"Ġ1878":10579,"ĠEgyptians":10580,"Ġinvestment":10581,"Ġzinc":10582,"Ġpersist":10583,"Ġtransported":10584,"Ġpeninsula":10585,"Ġtested":10586,"Ġpresidential":10587,"Ġexamination":10588,"ĠOpera":10589,"ĠOperations":10590,"ĠFinally":10591,"ĠHoloca":10592,"ĠJustin":10593,"ĠSixth":10594,"ĠHumphrey":10595,"Ġbeaten":10596,"Ġneighbour":10597,"ographical":10598,"ĠCommunity":10599,"ĠJosÃ©":10600,"Ġvenue":10601,"ĠBrenda":10602,"ĠPopular":10603,"ĠWorks":10604,"Ġhoriz":10605,"ĠKenneth":10606,"Ġhouseholds":10607,"ĠUrania":10608,"ĠLucas":10609,"ĠArchaeology":10610,"Ġimmigration":10611,"ĠFlower":10612,"Ġpartnership":10613,"Ġindigenous":10614,"ĠLocal":10615,"Ġrenewed":10616,"Ġconscious":10617,"Ġfuneral":10618,"ĠVulcan":10619,"Ġconsolid":10620,"ĠGlobe":10621,"Ġintellectual":10622,"agoda":10623,"Ġtwentieth":10624,"ĠEuropa":10625,"ĠKyra":10626,"Ġtombs":10627,"Ġsteadily":10628,"ĠContemporary":10629,"ĠAtlÃ©tico":10630,"ĠHolocaust":10631,"CO":10632,"ES":10633,"RNA":10634,"fly":10635,"join":10636,"mbrace":10637,"rÃŃ":10638,"uters":10639,"uating":10640,"zz":10641,"»¿":10642,"inted":10643,"incess":10644,"Ġsoci":10645,"Ġsnow":10646,"Ġwre":10647,"Ġward":10648,"Ġcemetery":10649,"itely":10650,"Ġing":10651,"arro":10652,"alog":10653,"asm":10654,"Ġmate":10655,"Ġmood":10656,"ĠTu":10657,"ĠTen":10658,"ĠTrophy":10659,"Ġreward":10660,"Ġlumber":10661,"Ġlumin":10662,"Ġeating":10663,"ĠCart":10664,"ĠCass":10665,"ĠMong":10666,"olm":10667,"olt":10668,"ĠBal":10669,"ĠBoss":10670,"irts":10671,"Ġstyl":10672,"ĠHay":10673,"ĠHockey":10674,"uther":10675,"ĠPirates":10676,"andra":10677,"andern":10678,"ĠGraham":10679,"ĠLÃ¼":10680,"Ġseas":10681,"riarch":10682,"Ġcomfort":10683,"Ġproceeded":10684,"ifeng":10685,"aple":10686,"ighters":10687,"Ġpled":10688,"Ġplate":10689,"Ġplacing":10690,"Ġkid":10691,"gends":10692,"Ġcomprom":10693,"Ġunrest":10694,"ogan":10695,"hedruli":10696,"ubles":10697,"ĠVandern":10698,"ĠThai":10699,"Ġ1800":10700,"Ġjaw":10701,"Ġoffshore":10702,"Ġenforce":10703,"Ġcanals":10704,"Ġconsum":10705,"Ġassert":10706,"Ġspeculation":10707,"Ġacre":10708,"Ġretain":10709,"Ġacceler":10710,"Ġamid":10711,"Ġcook":10712,"ended":10713,"Ġsingers":10714,"Ġ169":10715,"Ġstudying":10716,"ĠBrack":10717,"Ġdevelopers":10718,"Ġmayor":10719,"Ġcomplement":10720,"Ġdistant":10721,"ĠAustrian":10722,"tym":10723,"Ġwarned":10724,"Ġrepairs":10725,"Ġairports":10726,"Ġconstantly":10727,"ĠColomb":10728,"ĠCloud":10729,"Ã©e":10730,"ĠGuild":10731,"Ġports":10732,"Ġportions":10733,"Ġvisits":10734,"Ġapproaching":10735,"Ġtrio":10736,"Ġslopes":10737,"Ġstorylines":10738,"Ġmarking":10739,"ĠPrincess":10740,"ĠBox":10741,"ĠComputer":10742,"ĠComposition":10743,"ĠCompanies":10744,"Ġmagical":10745,"Ġsitu":10746,"Ġreportedly":10747,"Ġobsc":10748,"ĠAfricaine":10749,"ĠCharmbrace":10750,"Ġcorpor":10751,"Ġconventional":10752,"Ġpriests":10753,"ĠGlanville":10754,"Ġvaluable":10755,"Ġargument":10756,"ĠCrash":10757,"Ġvolumes":10758,"Ġfunded":10759,"ĠPlayers":10760,"ĠPhilipp":10761,"Ġthreats":10762,"Ġload":10763,"Ġpersons":10764,"Ġbreaks":10765,"Ġminority":10766,"ĠAgency":10767,"ĠSuperman":10768,"Ġhomosexual":10769,"Ġautob":10770,"Ġautumn":10771,"ĠOffic":10772,"abyrin":10773,"ĠFranklin":10774,"ĠRussell":10775,"Ġcelebrate":10776,"awny":10777,"Ġtalks":10778,"Ġsexuality":10779,"Ġconcentration":10780,"Ġvoices":10781,"Ġconnections":10782,"ĠLloyd":10783,"ĠAlfa":10784,"Ġchallenging":10785,"ĠVillaret":10786,"Ġflagship":10787,"ĠKaifeng":10788,"Ġcalculated":10789,"Ġsponsored":10790,"ĠMovie":10791,"Ġquoted":10792,"Ġignored":10793,"ĠLancaster":10794,"Ġinaugural":10795,"Ġintegr":10796,"Ġexhausted":10797,"Ġabsolute":10798,"Ġtributaries":10799,"Ġdensity":10800,"ĠCecil":10801,"orrowed":10802,"Ġinsects":10803,"Ġcondemned":10804,"ĠBanksia":10805,"Ġï»¿":10806,"Ġalphab":10807,"ĠMkhedruli":10808,"ĠNavarro":10809,"ĠCantrell":10810,"ĠBaptist":10811,"ĠHebrew":10812,"ĠVandernoot":10813,"ĠCharmbracelet":10814,"abyrinth":10815,"VP":10816,"bow":10817,"feller":10818,"gud":10819,"ht":10820,"nall":10821,"rh":10822,"tz":10823,"zhou":10824,"Ġtorn":10825,"reens":10826,"Ġwaves":10827,"atum":10828,"Ġbeds":10829,"aria":10830,"arged":10831,"Ġpig":10832,"Ġpink":10833,"Ġtoxic":10834,"icians":10835,"Ġdying":10836,"Ġhi":10837,"Ġhind":10838,"ĠTong":10839,"ĠTide":10840,"Ġreun":10841,"ilis":10842,"ĠSina":10843,"ĠSultan":10844,"Ġnom":10845,"Ġnut":10846,"ĠCad":10847,"ĠCirc":10848,"ĠMission":10849,"ĠMVP":10850,"ĠImp":10851,"Ġgathered":10852,"olics":10853,"ĠBilly":10854,"igious":10855,"Ġstall":10856,"ĠPup":10857,"ĠRaid":10858,"ĠRaf":10859,"ĠFried":10860,"ĠFarm":10861,"ĠDress":10862,"ĠGiel":10863,"ĠLt":10864,"ĠLamb":10865,"Ġheir":10866,"Ġrivals":10867,"ĠEle":10868,"ĠEch":10869,"ĠEve":10870,"Ġventure":10871,"ĠInvest":10872,"apol":10873,"ocent":10874,"Ġshield":10875,"Ġlect":10876,"ĠStill":10877,"Ġtrunk":10878,"Ġunless":10879,"Ġclergy":10880,"Ġresid":10881,"place":10882,"Ġscr":10883,"Ġscreens":10884,"Ġmanage":10885,"Ġovers":10886,"Ġspore":10887,"ibilities":10888,"kefeller":10889,"Ġfinest":10890,"Ġprest":10891,"Ġattorney":10892,"Ġcentered":10893,"rible":10894,"ĠSev":10895,"ĠSeven":10896,"Ġknocked":10897,"ĠArn":10898,"Ġconsumption":10899,"Ġundergo":10900,"Ġcolours":10901,"Ġnoise":10902,"Ġbuoys":10903,"ĠLeices":10904,"Ġdozen":10905,"anya":10906,"Ġsurpass":10907,"Ġ106":10908,"Ġdecide":10909,"Ġpreserve":10910,"ĠBristol":10911,"Ġmonit":10912,"Ġmini":10913,"Ġsmoke":10914,"Ġshipments":10915,"uedoc":10916,"ĠIsles":10917,"ĠAustro":10918,"ĠAustria":10919,"rapping":10920,"ĠConn":10921,"Ġairfield":10922,"Ġpassages":10923,"ĠBlues":10924,"Ġedit":10925,"Ġvariations":10926,"ĠClocks":10927,"ĠAdult":10928,"Ġdrivers":10929,"ĠYorkshire":10930,"Ġmarch":10931,"Ġprogressed":10932,"Ġhumor":10933,"Ġcollections":10934,"Ġlegit":10935,"Ġreplacing":10936,"Ġtraditions":10937,"Ġsimilarities":10938,"Ġsoldier":10939,"Ġroadway":10940,"Ġpoliticians":10941,"Ġstronger":10942,"Ġ1904":10943,"ambo":10944,"Ġcorps":10945,"ĠElgin":10946,"Ġtravels":10947,"Ġgrows":10948,"Ġimprovement":10949,"ĠBerht":10950,"Ġcircuit":10951,"ĠCommandos":10952,"Ġdeterior":10953,"Ġlyrical":10954,"ĠSmall":10955,"Ġphysics":10956,"Ġgraduate":10957,"Ġmemorable":10958,"ĠCatholics":10959,"Ġflows":10960,"Ġhoping":10961,"nyi":10962,"Ġintersects":10963,"Ġsalary":10964,"Ġessentially":10965,"Ġemotions":10966,"Ġtasks":10967,"Ġdynamic":10968,"ĠAviation":10969,"Ġpermanently":10970,"Ġduo":10971,"Ġbelonging":10972,"claimed":10973,"Ġfragments":10974,"ĠLarry":10975,"Ġdevoted":10976,"Ġimagery":10977,"Ġtimber":10978,"ĠUlster":10979,"Ġreflecting":10980,"Ġhamlet":10981,"Ġoccasional":10982,"Ġmoist":10983,"Ġstretched":10984,"ĠRonald":10985,"Ġvertices":10986,"hua":10987,"ĠQedarites":10988,"Ġrepeatedly":10989,"Ġexperimental":10990,"Ġwicket":10991,"ĠBhair":10992,"ĠGanges":10993,"Ġpuzzle":10994,"Ġloved":10995,"Ġprospect":10996,"Ġindigo":10997,"Ġurged":10998,"Ġsanct":10999,"Ġjackrabbit":11000,"ĠRockefeller":11001,"Ġdivorce":11002,"Ġdiplomatic":11003,"Ġcooperation":11004,"Ġteammate":11005,"ĠLoverboy":11006,"ĠLanguedoc":11007,"ĠMachine":11008,"Ġtruly":11009,"ĠFreakum":11010,"ĠWNO":11011,"ĠNelson":11012,"ĠPerformance":11013,"iaduct":11014,"ĠAuburn":11015,"ĠRuler":11016,"Ġmysterious":11017,"Ġsurrendered":11018,"ĠSinai":11019,"ĠGielgud":11020,"ĠLeicester":11021,"ĠBerhtwald":11022,"EA":11023,"evelop":11024,"gans":11025,"ii":11026,"ker":11027,"kner":11028,"lights":11029,"mad":11030,"oided":11031,"vada":11032,"Ġurg":11033,"ĨĴ":11034,"Ġtort":11035,"Ġtape":11036,"Ġath":11037,"Ġsic":11038,"Ġsibl":11039,"Ġsacked":11040,"Ġcards":11041,"enar":11042,"isp":11043,"Ġintend":11044,"Ġpin":11045,"ashes":11046,"Ġtools":11047,"Ġdressed":11048,"ĠSout":11049,"Ġnavy":11050,"Ġnaked":11051,"amation":11052,"ĠCov":11053,"ĠCret":11054,"ĠMond":11055,"Ġgarn":11056,"ĠBM":11057,"irty":11058,"Ġascend":11059,"iga":11060,"igadier":11061,"owed":11062,"Ġstability":11063,"Ġstanz":11064,"ĠHur":11065,"ĠRover":11066,"ĠFast":11067,"ĠFaul":11068,"ĠWant":11069,"osy":11070,"ĠGack":11071,"ĠLoy":11072,"ĠJag":11073,"ĠEp":11074,"akim":11075,"ĠâĨĴ":11076,"Ġsharp":11077,"Ġshallow":11078,"ĠâĢ¦":11079,"ĠUk":11080,"ĠKle":11081,"ĠKings":11082,"ipitation":11083,"Ġcompan":11084,"raits":11085,"Ġunex":11086,"ubs":11087,"ĠVik":11088,"Ġadequ":11089,"Ġscenar":11090,"Ġjunction":11091,"Ġspan":11092,"Ġimperial":11093,"enson":11094,"issions":11095,"Ġknock":11096,"ictions":11097,"ĠDevin":11098,"Ġendors":11099,"ĠLeban":11100,"anka":11101,"Ġgrain":11102,"Ġgrap":11103,"Ġ04":11104,"pense":11105,"phant":11106,"ĠScots":11107,"Ġminimal":11108,"Ġ116":11109,"Ġ118":11110,"Ġbrood":11111,"Ġlandmark":11112,"azing":11113,"ĠBeau":11114,"ĠTelegraph":11115,"Ġguarant":11116,"Ġpublicly":11117,"Ġdirecting":11118,"Ġverses":11119,"Ġconfusion":11120,"Ġdestination":11121,"ĠWeather":11122,"Ġdemon":11123,"Ġplanes":11124,"Ġplanets":11125,"Ġaviation":11126,"Ġavoided":11127,"Ġmagic":11128,"ĠBarbarian":11129,"Ġinvolves":11130,"Ġposts":11131,"Ġgenu":11132,"ĠNeolithic":11133,"ĠNevada":11134,"Ġlimits":11135,"Ġnightingale":11136,"Ġfunny":11137,"Ġsurvival":11138,"Ġbattlefield":11139,"Ġprocessing":11140,"Ã¡n":11141,"Ġ1857":11142,"Ġbarrier":11143,"Ġacceptable":11144,"Ġceased":11145,"ĠCrab":11146,"Ġdraws":11147,"ĠActress":11148,"mediate":11149,"Ġemployment":11150,"Ġseemingly":11151,"Ġviolation":11152,"Ġopined":11153,"Ġdealing":11154,"ĠMontreal":11155,"ĠÃĨ":11156,"ĠStudio":11157,"Ġscreened":11158,"Ġlinks":11159,"ĠMetro":11160,"Ġcomplicated":11161,"ĠBradman":11162,"Ġdedication":11163,"ĠFormation":11164,"Ġkicked":11165,"Ġambassador":11166,"Ġangle":11167,"Ġboyfriend":11168,"Ġessay":11169,"ĠMillennium":11170,"ĠJimmy":11171,"Ġnarrator":11172,"ĠDirect":11173,"Ġfamiliar":11174,"Ġremarkable":11175,"Ġmanufacturing":11176,"Ġduet":11177,"Ġbattleship":11178,"Ġopinions":11179,"ĠLoose":11180,"Ġtunnels":11181,"Ġperfectly":11182,"Ġdevotion":11183,"ĠRailroad":11184,"Ġmythology":11185,"Ġhorror":11186,"Ġsufficiently":11187,"Ġtonnes":11188,"ĠTrail":11189,"Ġevacuated":11190,"ĠBernard":11191,"Ġdisappeared":11192,"ĠAntonio":11193,"Ġrelegation":11194,"iblical":11195,"Ġshifted":11196,"Ġprice":11197,"Ġsongwriter":11198,"Ġaccommodate":11199,"Ġprohibited":11200,"ĠCultural":11201,"Ġbombardment":11202,"ĠYugoslavia":11203,"Ġsubstance":11204,"Ġpredominantly":11205,"ĠRobinson":11206,"Ġrectangular":11207,"ĠRemix":11208,"Ġdrainage":11209,"ĠCPS":11210,"Ġisotopes":11211,"Ġbombs":11212,"ĠMaurice":11213,"Ġsymptoms":11214,"Ġamphib":11215,"ĠMcCarthy":11216,"ĠShimomura":11217,"Ġenormous":11218,"Ġathlete":11219,"Ġsiblings":11220,"ĠCretaceous":11221,"Ġgarnered":11222,"ĠFaulkner":11223,"ĠGacko":11224,"CE":11225,"OM":11226,"box":11227,"cut":11228,"har":11229,"iors":11230,"saku":11231,"wight":11232,"ygh":11233,"zed":11234,"¡ng":11235,"Æ¡ng":11236,"à¸":11237,"Ġion":11238,"inate":11239,"Ġsick":11240,"Ġsaint":11241,"Ġsoph":11242,"Ġwrest":11243,"Ġcash":11244,"Ġcensus":11245,"Ġcavalry":11246,"Ġfires":11247,"Ġbull":11248,"Ġmg":11249,"ĠTow":11250,"Ġrejoin":11251,"ĠAk":11252,"ĠSpe":11253,"Ġlying":11254,"Ġeat":11255,"ĠCG":11256,"ĠCurt":11257,"adstone":11258,"urre":11259,"ĠMile":11260,"ĠMole":11261,"ĠImb":11262,"olves":11263,"Ġstingray":11264,"ĠHit":11265,"ĠHip":11266,"Ġbypass":11267,"ĠRag":11268,"Ġalg":11269,"ĠFord":11270,"ĠFull":11271,"ĠDa":11272,"ĠDwight":11273,"ĠWed":11274,"ĠWisc":11275,"Ġitem":11276,"Ġrushed":11277,"rix":11278,"ĠEP":11279,"ĠEarn":11280,"illas":11281,"aping":11282,"Ġplag":11283,"anther":11284,"oceratops":11285,"ĠUygh":11286,"ĠChan":11287,"Ġcomprehens":11288,"Ġcomputers":11289,"Ġheritage":11290,"ĠVist":11291,"achment":11292,"Ġenroll":11293,"ĠYang":11294,"Ġnep":11295,"Ġeval":11296,"Ġweigh":11297,"Ġremind":11298,"athy":11299,"onsin":11300,"Ġcolors":11301,"ĠCommer":11302,"Ġreleasing":11303,"Ġmovies":11304,"Ġretail":11305,"Ġsubord":11306,"Ġpresbyter":11307,"Ġpopulated":11308,"ĠBrigades":11309,"Ġ172":11310,"Ġ154":11311,"Ġcontinu":11312,"Ġexpand":11313,"Ġwarfare":11314,"Ġimposed":11315,"ĠConstitution":11316,"ĠBegin":11317,"Ġadvances":11318,"Ġgoverned":11319,"Ġvaries":11320,"Ġvariable":11321,"aiman":11322,"Ġhalted":11323,"Ġdemanded":11324,"adys":11325,"Ġexperts":11326,"Ġrealised":11327,"Ġcompetitive":11328,"ĠXook":11329,"ĠXbox":11330,"ĠAssy":11331,"ĠEdge":11332,"Ġafford":11333,"ĠAircraft":11334,"aulted":11335,"Ġlimestone":11336,"ĠGladstone":11337,"Ġ1854":11338,"Ġ1856":11339,"Ġswit":11340,"Ġmorph":11341,"Ġimprovements":11342,"ĠMonth":11343,"Ġelectrical":11344,"ĠRepresent":11345,"Ġcuts":11346,"ĠMedal":11347,"Ġdefender":11348,"Ġcyclones":11349,"Ġ1848":11350,"ĠMontfort":11351,"ĠFilming":11352,"Ġparticipants":11353,"Ġcaliber":11354,"ĠOfficial":11355,"ĠFIT":11356,"Ġlearns":11357,"Ġsuspect":11358,"Ġoptions":11359,"Ġlandscape":11360,"Ġweakening":11361,"Ġofferings":11362,"ĠJulian":11363,"Ġalternate":11364,"Ġwalks":11365,"ĠMalays":11366,"Ġgrasses":11367,"ĠDefence":11368,"Ġsacrif":11369,"Ġuniversal":11370,"ĠDestroy":11371,"ĠSenate":11372,"Ġspotted":11373,"ĠAppe":11374,"Ġcollaborated":11375,"Ġsensitive":11376,"Ġextends":11377,"ĠPete":11378,"ĠGarden":11379,"Ġchallenges":11380,"ĠLiberal":11381,"ĠGabri":11382,"Ġinducted":11383,"Ġmicroscop":11384,"Ġhighlighted":11385,"Ġpetition":11386,"Ġlinear":11387,"Ġimmigrants":11388,"Ġcabinet":11389,"Ġlicens":11390,"ĠNapole":11391,"Ġgender":11392,"Ġsurprised":11393,"ĠTechnology":11394,"Ġhypothes":11395,"ĠNicholas":11396,"Ġhelicopter":11397,"Ġrelieved":11398,"ĠCombat":11399,"Ġdeliberately":11400,"Ġvulner":11401,"ĠPfaster":11402,"Ġdisbanded":11403,"ĠPakistan":11404,"ĠATP":11405,"Ġsupreme":11406,"ĠWitchcraft":11407,"Ġtherapy":11408,"ĠKÅįsaku":11409,"ĠBÃ¬nh":11410,"Æ°Æ¡ng":11411,"Ġacoustic":11412,"Ġdecommissioned":11413,"ĠImbudo":11414,"ĠWisconsin":11415,"ĠEarnest":11416,"ĠBeginning":11417,"ais":11418,"aft":11419,"bits":11420,"dale":11421,"gom":11422,"halsa":11423,"lroy":11424,"pa":11425,"uerto":11426,"Ã±":11427,"įmar":11428,"Ġtal":11429,"Ġtawny":11430,"Ġsweet":11431,"atra":11432,"athetic":11433,"Ġcattle":11434,"itic":11435,"itter":11436,"ituals":11437,"Ġfier":11438,"Ġben":11439,"anelli":11440,"anthodon":11441,"aliation":11442,"Ġped":11443,"Ġpse":11444,"Ġpush":11445,"Ġmentions":11446,"rooms":11447,"Ġdancing":11448,"ĠTan":11449,"ĠTell":11450,"ĠTotal":11451,"ĠAh":11452,"ĠAut":11453,"ĠAction":11454,"ĠSite":11455,"ĠSaf":11456,"ĠSMS":11457,"Ġlie":11458,"Ġnat":11459,"amoul":11460,"ĠMembers":11461,"ĠMhalsa":11462,"Ġgri":11463,"ĠBelt":11464,"Ġaside":11465,"ĠHarris":11466,"uskh":11467,"etheless":11468,"Ġisn":11469,"ĠPuerto":11470,"ĠRI":11471,"ĠRav":11472,"ĠFa":11473,"Ġconvey":11474,"ulating":11475,"ĠWorth":11476,"ĠNuskh":11477,"ĠGy":11478,"ags":11479,"agers":11480,"Ġdeer":11481,"Ġdealt":11482,"Ġrape":11483,"Ġrush":11484,"Ġrituals":11485,"ifest":11486,"iller":11487,"ĠIns":11488,"ework":11489,"ocese":11490,"Ġshock":11491,"Ġyd":11492,"ĠKam":11493,"ĠKick":11494,"ĠKatherine":11495,"iper":11496,"ĠStand":11497,"ĠStakes":11498,"ĠStrapping":11499,"ounced":11500,"Ġintact":11501,"ĠHein":11502,"Ġreconc":11503,"Ġperception":11504,"Ġboil":11505,"lando":11506,"Ġplayable":11507,"ricus":11508,"Ġdisgu":11509,"Ġaftermath":11510,"Ġenabled":11511,"Ġoutstanding":11512,"Ġknee":11513,"ĠEnergy":11514,"ĠDead":11515,"Ġapartment":11516,"Ġpron":11517,"Ġspeculated":11518,"Ġquit":11519,"Ġquiet":11520,"Ġsubtropical":11521,"ĠLevel":11522,"hesh":11523,"Ġaddressed":11524,"Ġdescent":11525,"Ġinvaded":11526,"Ġtransformed":11527,"ĠBrun":11528,"ĠScout":11529,"Ġ115":11530,"Ġmilk":11531,"Ġadventures":11532,"Ġmetric":11533,"Ġheading":11534,"Ġguerr":11535,"ashire":11536,"Ġpromise":11537,"Ġextant":11538,"ĠTrinity":11539,"ĠGuinness":11540,"Ġarrives":11541,"Ġtriang":11542,"ĠOrlando":11543,"Ġtempo":11544,"Ġcommunist":11545,"Ġcompeted":11546,"Ġdeclaring":11547,"ĠParanthodon":11548,"ometric":11549,"Ġpressed":11550,"Ġdivines":11551,"Ġcasting":11552,"ĠBlackie":11553,"Ġlawyer":11554,"Ġ1894":11555,"Ġ1898":11556,"ĠMoro":11557,"Ġcommentary":11558,"Ġcasem":11559,"Ġ1851":11560,"Ġrecognize":11561,"Ġestimate":11562,"Ġ1881":11563,"ĠBergen":11564,"Ġfloods":11565,"Ġ1832":11566,"ĠVargas":11567,"ĠGreatest":11568,"ĠNote":11569,"ĠMontgom":11570,"ĠÃįmar":11571,"Ġantiqu":11572,"ĠTerry":11573,"Ġexamined":11574,"ĠLaure":11575,"Ġflowers":11576,"Ġpaying":11577,"Ġlabour":11578,"ĠMahesh":11579,"Ġportrayal":11580,"ĠSurv":11581,"ĠHumpty":11582,"Ġattending":11583,"ĠColonies":11584,"Ġcrowds":11585,"ĠTodd":11586,"ĠReviews":11587,"Ġqualifying":11588,"Ġexhibited":11589,"Ġthirteen":11590,"Ġdissipating":11591,"ĠFerd":11592,"ĠRhode":11593,"ĠApart":11594,"Ġconnects":11595,"ĠPoet":11596,"Ġcomprising":11597,"ĠNazaire":11598,"ĠDerby":11599,"ĠKeys":11600,"Ġ737":11601,"Ġconcerning":11602,"ĠRetrieved":11603,"Ġaltarpiece":11604,"ĠGabbar":11605,"ĠTraff":11606,"ĠBrazilian":11607,"ĠGanganelli":11608,"ĠDarwin":11609,"ĠWallace":11610,"Ġvolunteers":11611,"ĠKatia":11612,"ĠPersonal":11613,"Ġnickn":11614,"Ġrecreational":11615,"Ġpreceding":11616,"ĠLancashire":11617,"Ġicon":11618,"Ġdiverse":11619,"escope":11620,"ĠPAVN":11621,"Ġinterpretation":11622,"Ġoverwhelming":11623,"ĠRajamoul":11624,"ĠSidon":11625,"Ġreservoirs":11626,"Ġgusts":11627,"Ġcategories":11628,"Ġguidance":11629,"Ġrebellion":11630,"ĠTaxonomy":11631,"Ġliquid":11632,"ĠMcElroy":11633,"Ġhygromet":11634,"Ġinternationally":11635,"Ġmetallic":11636,"ĠÂµm":11637,"ĠGuinea":11638,"ĠBracknell":11639,"ĠNuskhuri":11640,"ĠMontgomery":11641,"ĠRajamouli":11642,"Ġhygrometricus":11643,"Ar":11644,"ED":11645,"aels":11646,"cially":11647,"found":11648,"gro":11649,"hum":11650,"ji":11651,"pat":11652,"ĠÎ":11653,"Ġarose":11654,"Ġthesis":11655,"reated":11656,"Ġwished":11657,"Ġwonder":11658,"unning":11659,"atters":11660,"Ġcam":11661,"Ġcakes":11662,"Ġfart":11663,"Ġbold":11664,"arius":11665,"Ġmild":11666,"Ġdad":11667,"Ġhockey":11668,"ĠSull":11669,"ĠSax":11670,"ĠSNL":11671,"oma":11672,"Ġnose":11673,"aman":11674,"ĠCN":11675,"ĠCadmium":11676,"elago":11677,"adic":11678,"lyn":11679,"ĠMes":11680,"ĠMoh":11681,"Ġgra":11682,"Ġgentle":11683,"ivan":11684,"ĠBou":11685,"ĠBased":11686,"ĠBoot":11687,"igon":11688,"usade":11689,"ayne":11690,"Ġalignment":11691,"ĠFat":11692,"ĠDE":11693,"ĠDÃŃ":11694,"ĠWell":11695,"andom":11696,"ĠNEA":11697,"ĠGross":11698,"ĠLiz":11699,"ĠLyn":11700,"ĠLoren":11701,"ĠdeGrom":11702,"Ġveloc":11703,"Ġchanc":11704,"season":11705,"Ġshall":11706,"Ġleagues":11707,"ovil":11708,"ource":11709,"ipelago":11710,"ption":11711,"ĠChop":11712,"Ġwheel":11713,"Ġrot":11714,"Ġintr":11715,"ĠVishn":11716,"Ġclar":11717,"Ġabn":11718,"irect":11719,"Ġages":11720,"Ġdesper":11721,"Ġdislik":11722,"Ġteleph":11723,"ĠYam":11724,"Ġpref":11725,"Ġsecular":11726,"ĠAnaly":11727,"Ġconservative":11728,"Ġasserted":11729,"Ġincurs":11730,"Ġindirect":11731,"Ġcoat":11732,"Ġcoaster":11733,"Ġentert":11734,"tene":11735,"Ġ1200":11736,"Ġinvitation":11737,"Ġtransits":11738,"Ġtranscription":11739,"ĠScand":11740,"Ġministers":11741,"Ġ111":11742,"Ġbrings":11743,"Ġthoughts":11744,"Ġdiscont":11745,"ylogen":11746,"Ġimpressive":11747,"eping":11748,"Ġinsisted":11749,"ĠBeth":11750,"ĠColl":11751,"ĠForb":11752,"Ġbatting":11753,"Ã©d":11754,"Ġmarched":11755,"Ġpositioned":11756,"ĠTherefore":11757,"Ġorganic":11758,"Ġrealistic":11759,"ĠBrother":11760,"Ġdebt":11761,"ĠParker":11762,"Ġstatue":11763,"Ġinvolve":11764,"Ġwanting":11765,"Ġfarming":11766,"Ġfemin":11767,"Ġordinary":11768,"Ġlights":11769,"Ġgenres":11770,"Ġdestroying":11771,"ĠBlacks":11772,"Ġtourists":11773,"Ġprotesters":11774,"Ġradius":11775,"Ġskill":11776,"Ġtravelling":11777,"Ġ1891":11778,"Ġsword":11779,"ĠSword":11780,"Ġcommerce":11781,"Ġcommercially":11782,"ĠMontene":11783,"Ġ1882":11784,"Ġcircular":11785,"ĠCrim":11786,"Ġhosts":11787,"Ġdrawings":11788,"Ġ1865":11789,"ĠDays":11790,"ĠMedieval":11791,"Ġresponses":11792,"Ġhonours":11793,"Ġinterviews":11794,"Ġinterviewed":11795,"Ġzones":11796,"Ġloop":11797,"Ġeducational":11798,"Ġoccupy":11799,"ĠTerrorist":11800,"Ġensemble":11801,"Ġlayers":11802,"ĠFinn":11803,"Ġscripts":11804,"ĠQuinn":11805,"Ġpaths":11806,"Ġconfirm":11807,"Ġprinciple":11808,"Ġangry":11809,"Ġelevated":11810,"Ġeleventh":11811,"Ġreactor":11812,"Ġtorpedoes":11813,"Ġratio":11814,"Ġweakness":11815,"Ġjumping":11816,"Ġscholarship":11817,"Ġmounts":11818,"Ġhonorary":11819,"ĠDenmark":11820,"ĠLlosa":11821,"Ġeliminate":11822,"Ġwitnesses":11823,"Ġpulp":11824,"ĠMariah":11825,"Ġplatforms":11826,"Ġdecrease":11827,"ĠStewie":11828,"Ġaccomplished":11829,"Ġrevolutionary":11830,"ĠChronicle":11831,"ĠRaymond":11832,"ĠYeovil":11833,"Ġorchestra":11834,"Ġteachings":11835,"ĠGibson":11836,"Ġdinosaurs":11837,"Ġloyal":11838,"Ġacknowledged":11839,"ĠCobra":11840,"rosaurus":11841,"Ġastronomers":11842,"ĠMcLaren":11843,"Ġreverse":11844,"urrently":11845,"Ġsupernatural":11846,"Ġreversed":11847,"Ġbattlecruisers":11848,"Ġinhabited":11849,"Ġcoffee":11850,"ĠSymph":11851,"Ġsemifinals":11852,"Ġpione":11853,"Ġadvertisements":11854,"ĠJenkins":11855,"ĠFifth":11856,"ĠBattery":11857,"Ġhampered":11858,"ĠAlgernon":11859,"Ġwreck":11860,"Ġsituations":11861,"ĠRafael":11862,"apolis":11863,"ĠFastra":11864,"Ġunexpected":11865,"Ġgraphic":11866,"ĠSullivan":11867,"ĠDÃŃaz":11868,"Ġvelocity":11869,"aude":11870,"hin":11871,"pack":11872,"rino":11873,"zes":11874,"Ġtent":11875,"Ġaided":11876,"inisc":11877,"Ġtheore":11878,"onation":11879,"Ġcu":11880,"Ġcir":11881,"Ġcens":11882,"Ġcats":11883,"Ġfil":11884,"Ġfiled":11885,"isons":11886,"Ġborrowed":11887,"Ġpuma":11888,"asco":11889,"Ġmast":11890,"Ġdawn":11891,"ĠTai":11892,"Ġthrown":11893,"entine":11894,"ĠSyn":11895,"stable":11896,"stappen":11897,"Ġeagle":11898,"eld":11899,"adh":11900,"Ġbeak":11901,"ĠMail":11902,"Ġgover":11903,"Ġghost":11904,"Ġgospel":11905,"Ġforg":11906,"ivation":11907,"idel":11908,"igible":11909,"thic":11910,"Ġstaged":11911,"Ġstabil":11912,"Ġstorage":11913,"ĠHom":11914,"ĠHem":11915,"ĠHosp":11916,"oto":11917,"Ġwhatever":11918,"ĠDawn":11919,"Ġconce":11920,"Ġconso":11921,"Ġconform":11922,"Ġconceived":11923,"emen":11924,"ĠWu":11925,"osph":11926,"ĠNi":11927,"ĠLear":11928,"odium":11929,"riors":11930,"istical":11931,"Ġvint":11932,"illes":11933,"ĠInside":11934,"Ġexterior":11935,"ĠKah":11936,"ĠKarl":11937,"ĠStaff":11938,"ostere":11939,"ĠChang":11940,"Ġunstable":11941,"ĠVoyage":11942,"Ġdesired":11943,"Ġspelling":11944,"Ġspokes":11945,"Ġcentres":11946,"ĠSean":11947,"tsburgh":11948,"Ġfeared":11949,"Ġreminisc":11950,"ĠArcher":11951,"Ġconspir":11952,"ĠNewport":11953,"Ġmusc":11954,"Ġaccus":11955,"Ġfounding":11956,"Ġblamed":11957,"ĠJohann":11958,"Ġstudios":11959,"ĠAftermath":11960,"Ġdeveloper":11961,"Ġdevelopments":11962,"Ġ151":11963,"ĠIndies":11964,"Ġterr":11965,"Ġdeputy":11966,"ylostere":11967,"Ġefficient":11968,"Ġsixty":11969,"ĠBeing":11970,"Ġwinners":11971,"Ġadvocated":11972,"erves":11973,"ĠNorthumber":11974,"mede":11975,"ĠJanet":11976,"Ġlasting":11977,"ĠFez":11978,"Ġconfused":11979,"Ġprogression":11980,"Ġslave":11981,"Ġmarkets":11982,"Ġphosph":11983,"ĠSpir":11984,"ĠOrd":11985,"Ġdebated":11986,"Ġantagon":11987,"Ġtwins":11988,"brush":11989,"alypt":11990,"Ġelite":11991,"Ġdeclaration":11992,"ĠAmylostere":11993,"ĠEdition":11994,"ĠDavies":11995,"Ġradar":11996,"Ġradical":11997,"Ġdiscovers":11998,"Ġ1896":11999,"Ġentirety":12000,"ecutive":12001,"ĠGlass":12002,"Ġcampaigns":12003,"Ġcommentators":12004,"Ġidentical":12005,"Ġagrees":12006,"ĠExeter":12007,"ĠExecutive":12008,"Ġlacks":12009,"Ġcease":12010,"Ġ1862":12011,"ĠThompson":12012,"Ġachievement":12013,"Ġcostumes":12014,"ĠMaryang":12015,"Ġexciting":12016,"castle":12017,"ĠMedical":12018,"Ġstaying":12019,"Ġbills":12020,"Ġpainter":12021,"Ġpersisted":12022,"Ġopens":12023,"Ġgraduated":12024,"iffs":12025,"Ġparticipation":12026,"Ġmemoir":12027,"ĠArtist":12028,"ĠArtillery":12029,"ĠVerstappen":12030,"Ġfrequency":12031,"ĠGoat":12032,"Ġcoined":12033,"Ġfriendship":12034,"Ġfocuses":12035,"Ġdeeply":12036,"Ġborders":12037,"Ġbombers":12038,"Ġcounteratt":12039,"Ġlogs":12040,"Ġjudo":12041,"Ġmurd":12042,"ĠBobby":12043,"ĠJamie":12044,"Ġemotion":12045,"Ġathletics":12046,"Ġvocalist":12047,"Ġexhibit":12048,"Ġmessages":12049,"Ġprinting":12050,"Ġemphasized":12051,"Ġbelonged":12052,"Ġtargeted":12053,"Ġfungi":12054,"bourne":12055,"ĠAnnals":12056,"ĠPopM":12057,"ĠAttack":12058,"Ġfears":12059,"Ġrestaurants":12060,"ĠAthletics":12061,"ĠShaolin":12062,"Ġcameras":12063,"Ġproposals":12064,"Ġrendition":12065,"ĠBruins":12066,"Ġapplications":12067,"Ġsubmarines":12068,"Ġplumage":12069,"Ġsailors":12070,"ĠFreedom":12071,"Ġcorresponding":12072,"Ġawareness":12073,"Ġaffecting":12074,"Ġdrugs":12075,"Ġenlisted":12076,"Ġfairly":12077,"ĠCampbeltown":12078,"Ġskelet":12079,"Ġgathering":12080,"Ġmutual":12081,"Ġgallery":12082,"ĠWolfpack":12083,"Ġpatrols":12084,"ĠDurham":12085,"ipedia":12086,"Ġrecruited":12087,"Ġmerchant":12088,"Ġfrigates":12089,"ĠMagdalen":12090,"ĠBehind":12091,"Ġstere":12092,"Ġbinding":12093,"Ġaggregate":12094,"Ġenthusi":12095,"ĠPrivate":12096,"ĠAdministration":12097,"Ġbonus":12098,"Ġadministered":12099,"Ġdispatched":12100,"ĠWikipedia":12101,"ĠMcNichol":12102,"Ġcomprehensive":12103,"Ġnephew":12104,"Ġgoverning":12105,"Ġconsole":12106,"Ġreminiscent":12107,"ĠNorthumberland":12108,"bre":12109,"case":12110,"coh":12111,"chen":12112,"even":12113,"othy":12114,"pike":12115,"point":12116,"rist":12117,"xim":12118,"zu":12119,"ãĥ":12120,"Ġtennis":12121,"herent":12122,"inster":12123,"Ġsaving":12124,"Ġoribi":12125,"Ġcable":12126,"Ġbron":12127,"Ġboss":12128,"Ġinver":12129,"aland":12130,"Ġpose":12131,"Ġharsh":12132,"ĠTuck":12133,"ĠTzu":12134,"ĠAway":12135,"ĠSri":12136,"Ġlig":12137,"Ġnice":12138,"ĠCemetery":12139,"ĠMall":12140,"Ġforb":12141,"olver":12142,"ĠBa":12143,"ighed":12144,"ĠHad":12145,"ĠHakim":12146,"etown":12147,"ĠPok":12148,"ĠPink":12149,"ĠRen":12150,"ĠRNA":12151,"Ġalcoh":12152,"ĠFear":12153,"ĠDumpt":12154,"Ġconven":12155,"Ġconclus":12156,"ĠWave":12157,"ĠWells":12158,"ĠGen":12159,"ĠGuth":12160,"ĠGao":12161,"ested":12162,"ĠOt":12163,"ĠEug":12164,"ĠECU":12165,"Ġproxim":12166,"resco":12167,"oping":12168,"Ġoral":12169,"Ġchances":12170,"Ġexile":12171,"ĠKub":12172,"ovac":12173,"asted":12174,"ĠStyle":12175,"geon":12176,"ounters":12177,"Ġbutt":12178,"Ġrout":12179,"Ġscope":12180,"Ġscores":12181,"Ġdisabled":12182,"Ġjur":12183,"Ġovercome":12184,"izong":12185,"iban":12186,"Ġoutd":12187,"Ġnearest":12188,"Ġalliance":12189,"issart":12190,"Ġcanons":12191,"icken":12192,"Ġintervention":12193,"Ġpray":12194,"Ġflown":12195,"Ġincred":12196,"ĠLeinster":12197,"Ġdoors":12198,"Ġgram":12199,"Ġelephant":12200,"Ġ108":12201,"Ġdecis":12202,"Ġdecoration":12203,"phy":12204,"aja":12205,"Ġ167":12206,"ĠShaw":12207,"Ġmining":12208,"Ġreporter":12209,"ĠBloom":12210,"ĠCommodore":12211,"ĠClay":12212,"ĠNorthwest":12213,"ĠAdri":12214,"Ġconfidence":12215,"Ġrefuses":12216,"Ġexplaining":12217,"Ġexplored":12218,"Ġbread":12219,"Ġbreeds":12220,"Ġhandle":12221,"Ġhandling":12222,"ĠBoat":12223,"Ġsuggestion":12224,"Ġcrusad":12225,"Ġdebris":12226,"Ġtotally":12227,"ĠMint":12228,"Ġlessons":12229,"Ġstatues":12230,"ĠBaron":12231,"ĠParachute":12232,"Ġeighteen":12233,"Ġaffair":12234,"adesh":12235,"Ġintroduces":12236,"Ġhumanity":12237,"Ġblacks":12238,"ĠRegiments":12239,"Ġcorrid":12240,"Ġmixing":12241,"Ġ1893":12242,"Ġ1899":12243,"Ġsummar":12244,"Ġcoastline":12245,"ĠCareer":12246,"ĠSecurity":12247,"ĠMoritz":12248,"Ġknows":12249,"ÃŃn":12250,"ĠOthers":12251,"Ġestimates":12252,"Ġsexually":12253,"Ġarguments":12254,"Ġacceptance":12255,"Ġrounded":12256,"Ġarmoured":12257,"Ġencounters":12258,"ĠSyria":12259,"Ġ1874":12260,"Ġcontracts":12261,"boro":12262,"Ġsubjected":12263,"Ġwoodland":12264,"Ġpoetic":12265,"Ġguitarist":12266,"Ġfocusing":12267,"unta":12268,"Ġultimate":12269,"ĠJoan":12270,"ĠSoviets":12271,"Ġattendance":12272,"Ġsymbols":12273,"Ġdescriptions":12274,"Ġdemonstration":12275,"ĠEngineers":12276,"Ġholes":12277,"ĠJoshua":12278,"ĠMDOT":12279,"ĠBrethren":12280,"ĠFerr":12281,"Ġextraord":12282,"Ġlabeled":12283,"metrical":12284,"Ġromance":12285,"Ġintelligent":12286,"Ġoxide":12287,"Ġfoxes":12288,"ĠCarlos":12289,"ĠClassic":12290,"Ġexpeditions":12291,"Ġprompting":12292,"Ġmigration":12293,"ĠUNES":12294,"Ġrendered":12295,"Ġwitnessed":12296,"Ġmistaken":12297,"ĠEllis":12298,"ĠMurphy":12299,"Ġrifles":12300,"ĠIngram":12301,"ĠRowley":12302,"Ġexplosive":12303,"ĠGreater":12304,"Ġinstrumental":12305,"Ġexercise":12306,"ĠMarshal":12307,"Ġshelter":12308,"ĠCopia":12309,"Ġsynthesis":12310,"Ġruins":12311,"ĠSavage":12312,"Ġimplemented":12313,"Ġdeposits":12314,"Ġinteg":12315,"Ġexhaust":12316,"Ġabsolut":12317,"Ġsamples":12318,"ĠCruiser":12319,"Ġanswer":12320,"Ġincomplete":12321,"Ġoverwhelmed":12322,"ĠAldean":12323,"Ġlisteners":12324,"ĠElectronic":12325,"Ġabundant":12326,"Ġabundance":12327,"Ġframework":12328,"ĠLithuan":12329,"Ġobstacles":12330,"Ġplayoffs":12331,"Ġturbines":12332,"Ġfantasy":12333,"ĠUniversal":12334,"Ġfertil":12335,"ĠUnderne":12336,"oplasm":12337,"ĠImportance":12338,"ĠHairan":12339,"ĠIAAF":12340,"ĠLÃ¼tz":12341,"ĠPuppet":12342,"ĠBhairava":12343,"Ġsanctuary":12344,"ĠCurtis":12345,"ĠChanology":12346,"ĠVistara":12347,"ĠNapoleon":12348,"Ġnaturally":12349,"Ġnickname":12350,"ĠDumpty":12351,"ĠGuthrie":12352,"ĠGaozong":12353,"Ġproximity":12354,"ĠUNESCO":12355,"ĠUnderneath":12356,"ĠLÃ¼tzow":12357,"NZ":12358,"cena":12359,"fire":12360,"jan":12361,"kes":12362,"lings":12363,"uania":12364,"vÄģda":12365,"wall":12366,"á¹":12367,"ĺī":12368,"Ġtel":12369,"Ġtales":12370,"inand":12371,"inich":12372,"rez":12373,"Ġsin":12374,"aters":12375,"oric":12376,"Ġcyl":12377,"itudes":12378,"Ġfed":12379,"isations":12380,"Ġbin":12381,"alph":12382,"Ġpill":12383,"Ġmere":12384,"Ġmaps":12385,"Ġdining":12386,"leans":12387,"ĠTalk":12388,"ĠAx":12389,"ĠANZ":12390,"ĠSEC":12391,"sts":12392,"Ġnas":12393,"Ġnic":12394,"ĠCall":12395,"acements":12396,"ĠMets":12397,"ĠITV":12398,"ĠBes":12399,"Ġstress":12400,"Ġstalk":12401,"ĠHave":12402,"ĠHub":12403,"ĠHoll":12404,"ĠPic":12405,"ĠPesh":12406,"ĠRalph":12407,"ĠFountain":12408,"ĠFlying":12409,"ĠDiamond":12410,"ulates":12411,"ĠWas":12412,"oso":12413,"ĠNF":12414,"ĠNOK":12415,"ĠGene":12416,"ĠLiam":12417,"Ġseated":12418,"umble":12419,"ĠOke":12420,"ĠIngr":12421,"opp":12422,"Ġorange":12423,"arting":12424,"Ġchord":12425,"Ġexchang":12426,"Ġexternal":12427,"Ġâĺī":12428,"ocy":12429,"Ġshaft":12430,"ĠkW":12431,"ĠKaiman":12432,"oves":12433,"ĠStat":12434,"ĠStones":12435,"ĠStarting":12436,"clamation":12437,"Ġuncom":12438,"Ġherb":12439,"ĠThan":12440,"ĠThail":12441,"ught":12442,"Ġmane":12443,"Ġjam":12444,"Ġspell":12445,"Ġspoken":12446,"ressions":12447,"ĠUnit":12448,"Ġremake":12449,"ĠAny":12450,"Ġrelied":12451,"ĠMarily":12452,"ĠNewfound":12453,"Ġretreated":12454,"Ġsuburb":12455,"ĠLeo":12456,"obee":12457,"Ġcooking":12458,"Ġ102":12459,"Ġdeciding":12460,"Ġ129":12461,"Ġinvent":12462,"itsu":12463,"Ġtransmitted":12464,"Ġmonster":12465,"Ġ156":12466,"ĠIndu":12467,"Ġexpanding":12468,"ĠWarrior":12469,"Ġrepet":12470,"Ġprovision":12471,"aze":12472,"Ġpassenger":12473,"Ġadvent":12474,"Ġdamages":12475,"ĠCarroll":12476,"Ġpointing":12477,"Ġeditions":12478,"ĠEuropium":12479,"pedition":12480,"Ġportraits":12481,"Ġconfron":12482,"ĠGrant":12483,"Ġtrium":12484,"Ġorganisations":12485,"Ġslaves":12486,"Ġphylogen":12487,"ĠFlair":12488,"ĠOrleans":12489,"arnation":12490,"Ġjoins":12491,"Ġcompeting":12492,"ĠPeron":12493,"ĠGeneration":12494,"Ġlesser":12495,"Ġcurve":12496,"Ġtroop":12497,"ĠPalmer":12498,"Ġ1892":12499,"Ġlikewise":12500,"Ġerror":12501,"Ġassociate":12502,"Ġ1859":12503,"ĠExpedition":12504,"Ġswallow":12505,"Ġaveraged":12506,"Ġseparately":12507,"Ġimproving":12508,"Ġspecialized":12509,"ĠMonica":12510,"Ġmaternal":12511,"ealous":12512,"ĠMarket":12513,"Ġmerc":12514,"licted":12515,"Ġdonations":12516,"Ġstopping":12517,"ĠHelen":12518,"ĠNotable":12519,"ĠÃī":12520,"Ġcrucial":12521,"ĠJerry":12522,"Ġpreventing":12523,"Ġscreenplay":12524,"Ġdispersed":12525,"ĠTurkey":12526,"Ġcontempor":12527,"uki":12528,"Ġuncle":12529,"Ġuncover":12530,"Ġconsiderably":12531,"Ġsuspected":12532,"Ġkinds":12533,"ĠTwins":12534,"ĠArchbishop":12535,"ĠRobyn":12536,"Ġintersections":12537,"Ġprinciples":12538,"ĠOutside":12539,"Ġlifted":12540,"ĠJulio":12541,"ÄģdvÄģda":12542,"umbered":12543,"ĠConfession":12544,"ĠJosh":12545,"Ġprincess":12546,"ĠHalf":12547,"Ġfunctional":12548,"Ġjournalists":12549,"ĠConstantin":12550,"ĠLoch":12551,"Ġremixes":12552,"Ġminerals":12553,"echobee":12554,"ĠIndustrial":12555,"Ġstrikeouts":12556,"Ġimagination":12557,"Ġphilosoph":12558,"Ġreflects":12559,"ĠDoctor":12560,"Ġchallenged":12561,"ĠLiberty":12562,"Ġfavourite":12563,"ĠBasement":12564,"Ġdistinguish":12565,"ĠAdventures":12566,"Ġsegments":12567,"ĠJudith":12568,"ĠUrban":12569,"Ġinstrumentation":12570,"ĠSubsequently":12571,"Ġdisappear":12572,"ĠDomnall":12573,"Ġconsequence":12574,"ĠBiography":12575,"Ġstreams":12576,"Ġbesie":12577,"ĠSaigon":12578,"ĠCruise":12579,"ĠMuham":12580,"Ġpersuaded":12581,"Ġgarden":12582,"ĠLithuania":12583,"Ġmammal":12584,"ĠBuddhist":12585,"Ġdrafted":12586,"Ġsummary":12587,"ĠObserver":12588,"Ġbarely":12589,"Ġphenomenon":12590,"Ġnineteenth":12591,"ĠRapids":12592,"Ġexcellent":12593,"Ġecho":12594,"ĠRebbie":12595,"Ġcrafts":12596,"Ġredesign":12597,"Ġhorizont":12598,"tymology":12599,"ĠOfficer":12600,"ĠCadets":12601,"isphere":12602,"ĠFerdinand":12603,"ĠSaxon":12604,"ĠLorenzo":12605,"ĠCrimson":12606,"ĠANZAC":12607,"ĠPeshkin":12608,"ĠOkeechobee":12609,"ĠIngrid":12610,"ĠKaimanawa":12611,"ĠThailand":12612,"ĠMarilyn":12613,"ĠNewfoundland":12614,"BO":12615,"SU":12616,"cor":12617,"kamed":12618,"lore":12619,"mem":12620,"no":12621,"nance":12622,"time":12623,"Ġties":12624,"Ġtong":12625,"Ġtune":12626,"inued":12627,"onso":12628,"reation":12629,"Ġstern":12630,"Ġsink":12631,"unc":12632,"ndolen":12633,"Ġca":12634,"itall":12635,"itars":12636,"ester":12637,"aro":12638,"ali":12639,"Ġmos":12640,"icism":12641,"Ġdign":12642,"Ġdug":12643,"Ġdanc":12644,"Ġdads":12645,"Ġhide":12646,"Ġreass":12647,"Ġthro":12648,"Ġthread":12649,"ĠAL":12650,"ĠAires":12651,"ila":12652,"iland":12653,"ilogy":12654,"ĠSport":12655,"ĠSpect":12656,"ĠSuez":12657,"oment":12658,"Ġecl":12659,"Ġnit":12660,"Ġnaut":12661,"ĠCry":12662,"ĠChemical":12663,"elope":12664,"Ġwaste":12665,"ĠMaid":12666,"ĠIR":12667,"Ġgains":12668,"Ġforget":12669,"ivorous":12670,"ĠBod":12671,"ĠBour":12672,"ĠBuen":12673,"ira":12674,"Ġstro":12675,"ĠHond":12676,"ĠPion":12677,"ĠPast":12678,"ĠPresent":12679,"ĠRat":12680,"ĠRook":12681,"ĠROK":12682,"ĠFig":12683,"ĠFund":12684,"ĠFlet":12685,"ĠFisher":12686,"ĠDal":12687,"ĠDoc":12688,"emark":12689,"ĠWard":12690,"osely":12691,"Ġanger":12692,"ĠGwe":12693,"ĠLin":12694,"ĠLim":12695,"Ġhence":12696,"estock":12697,"Ġrus":12698,"ĠEaster":12699,"ĠEps":12700,"Ġprobe":12701,"Ġvault":12702,"rescent":12703,"ĠInformation":12704,"opy":12705,"Ġchase":12706,"Ġchann":12707,"berry":12708,"ocation":12709,"Ġkiss":12710,"ĠKer":12711,"astian":12712,"ĠStansfield":12713,"clair":12714,"arya":12715,"ĠChile":12716,"Ġcomparing":12717,"itional":12718,"Ġclimb":12719,"Ġresolved":12720,"ĠThing":12721,"Ġagencies":12722,"ulty":12723,"Ġtends":12724,"Ġupr":12725,"anga":12726,"Ġspr":12727,"ĠYet":12728,"Ġsecuring":12729,"Ġremote":12730,"ĠAnsel":12731,"Ġrelay":12732,"Ġrelax":12733,"ugs":12734,"ĠComics":12735,"ĠComair":12736,"fting":12737,"ĠDeal":12738,"Ġregister":12739,"Ġincons":12740,"ĠLead":12741,"Ġgrace":12742,"Ġthereby":12743,"Ġsupplied":12744,"Ġsurve":12745,"phae":12746,"Ġ126":12747,"airn":12748,"full":12749,"Ġmillions":12750,"Ġbranches":12751,"ĠIndolence":12752,"Ġterrorist":12753,"ĠMayor":12754,"Ġdistort":12755,"Ġinfected":12756,"ĠBeat":12757,"Ġcharacterised":12758,"Ġmodes":12759,"Ġguitars":12760,"ĠTrade":12761,"Ġexplan":12762,"ĠManor":12763,"Ġdemanding":12764,"Ġdemographic":12765,"ĠBoom":12766,"Ġtraders":12767,"Ġcontrace":12768,"Ġeveryday":12769,"Ġparade":12770,"Ġdelight":12771,"Ġsitcom":12772,"Ġsolita":12773,"ĠEdd":12774,"ambia":12775,"Ġhumanitarian":12776,"ĠCharan":12777,"Ġconvict":12778,"Ġvillain":12779,"ogns":12780,"Ġsummon":12781,"restrial":12782,"Ġfights":12783,"ĠMonument":12784,"Ġ1888":12785,"ĠBerg":12786,"ĠBerk":12787,"Ġceiling":12788,"Ġ355":12789,"Ġ1863":12790,"Ġachievements":12791,"ĠCommandments":12792,"Ġ1877":12793,"ĠCapital":12794,"Ġsometime":12795,"Ġ1836":12796,"Ġbreakdown":12797,"ĠEmma":12798,"Ġfails":12799,"ĠReserve":12800,"Ġblockade":12801,"Ġdrown":12802,"toire":12803,"ĠMetall":12804,"ĠMetropolitan":12805,"ĠGothic":12806,"ĠBeyond":12807,"pani":12808,"Ġhopes":12809,"ĠFormer":12810,"Ġthrows":12811,"Ġdepends":12812,"Ġinvestigate":12813,"Ġdiseases":12814,"Ġhotels":12815,"ĠDelano":12816,"ĠCasting":12817,"Ġwitch":12818,"elligence":12819,"Ġchemistry":12820,"Ġconcentrations":12821,"Ġprecipitation":12822,"Ġincorporates":12823,"ĠConfessions":12824,"Ġharvest":12825,"Ġmechanism":12826,"Ġvenom":12827,"ĠHistorical":12828,"ĠFerry":12829,"ĠTruth":12830,"Ġneutron":12831,"Ġarticles":12832,"ĠSarah":12833,"Ġphilosopher":12834,"Ġattractive":12835,"ĠBarbara":12836,"ĠCuba":12837,"Ġ978":12838,"ĠEscape":12839,"Ġremnant":12840,"Ġreserves":12841,"Ġunsuccessfully":12842,"ĠMoving":12843,"avery":12844,"ĠArikamed":12845,"Ġcontributions":12846,"Ġdescendants":12847,"ĠLeonardo":12848,"Ġcorrespondence":12849,"Ġenlarged":12850,"Ġdownloadable":12851,"ĠMothers":12852,"Ġtributary":12853,"Ġswept":12854,"ĠDurand":12855,"ĠNicholson":12856,"Ġhelicopters":12857,"ĠIntelligence":12858,"Ġattributes":12859,"Ġmammals":12860,"Ġrumors":12861,"ĠParalympic":12862,"ĠHoriz":12863,"Ġmanufacturer":12864,"Ġfatalities":12865,"Ġlatest":12866,"Ġenzymes":12867,"Ġhemmem":12868,"Ġrecalls":12869,"ĠSinclair":12870,"ĠObservatory":12871,"Ġreopened":12872,"ĠBarnes":12873,"Ġcanceled":12874,"Ġhurd":12875,"Ġrepertoire":12876,"Ġlivestock":12877,"ĠCarty":12878,"Ġalphabet":12879,"Ġhiatus":12880,"Ġscenario":12881,"ĠFITs":12882,"Ġvulnerable":12883,"ĠVishnu":12884,"ĠScandin":12885,"ĠHospitall":12886,"Ġnautical":12887,"ĠBuenos":12888,"ĠGwendolen":12889,"Ġchannels":12890,"ĠAnselm":12891,"Ġsolitaire":12892,"ĠArikamedu":12893,"IV":12894,"cat":12895,"cos":12896,"jib":12897,"music":12898,"pets":12899,"rat":12900,"tovac":12901,"ĠÅ":12902,"Ġtension":12903,"hening":12904,"inces":12905,"erb":12906,"Ġworse":12907,"orith":12908,"Ġfest":12909,"Ġfisher":12910,"enburg":12911,"Ġbath":12912,"Ġincl":12913,"Ġpover":12914,"Ġmud":12915,"Ġmail":12916,"ĠmRNA":12917,"Ġdri":12918,"Ġdull":12919,"Ġdried":12920,"ĠTanya":12921,"ĠAw":12922,"ĠAff":12923,"ĠSac":12924,"ĠSug":12925,"ĠSquad":12926,"ĠCow":12927,"ĠCamer":12928,"eland":12929,"adi":12930,"ĠTheater":12931,"ĠMP":12932,"ĠBould":12933,"idae":12934,"iri":12935,"irate":12936,"igger":12937,"thi":12938,"Ġstump":12939,"ĠHod":12940,"ĠHoys":12941,"usa":12942,"ayana":12943,"ĠRico":12944,"ĠRush":12945,"ĠRandy":12946,"ĠFal":12947,"ĠFruit":12948,"ĠDian":12949,"ĠDraft":12950,"ĠWit":12951,"Ġanonymous":12952,"ĠLars":12953,"avian":12954,"Ġramp":12955,"ĠOcc":12956,"ĠOjib":12957,"Ġcomics":12958,"ĠEU":12959,"Ġproof":12960,"apa":12961,"abs":12962,"abad":12963,"Ġyl":12964,"oved":12965,"Ġbutter":12966,"Ġcontacted":12967,"Ġarsenal":12968,"Ġunw":12969,"Ġuncon":12970,"Ġroot":12971,"Ġrouting":12972,"ĠVis":12973,"ĠVett":12974,"Ġclad":12975,"assy":12976,"Ġreserved":12977,"Ġrespected":12978,"ĠThings":12979,"Ġboom":12980,"ĠAlph":12981,"Ġmanifest":12982,"Ġjunta":12983,"Ġenvel":12984,"Ġoutcome":12985,"Ġoutput":12986,"Ġweighed":12987,"Ġworker":12988,"Ġmeat":12989,"alsock":12990,"Ġrelating":12991,"Ġthanks":12992,"ĠEno":12993,"Ġrelevant":12994,"Ġinterception":12995,"Ġinterrupted":12996,"Ġintermediate":12997,"Ġformula":12998,"Ġflaw":12999,"Ġregulation":13000,"Ġregiments":13001,"Ġassessed":13002,"Ġambit":13003,"Ġamazing":13004,"Ġ103":13005,"tona":13006,"Ġadds":13007,"Ġblind":13008,"Ġdirections":13009,"Ġmonaster":13010,"elfth":13011,"ĠIndeed":13012,"Ġtermed":13013,"Ġrepaired":13014,"Ġprovinces":13015,"ĠConsequently":13016,"Ġcarrier":13017,"omanry":13018,"Ġmaturity":13019,"Ġsupports":13020,"Ġdamaging":13021,"Ġstrain":13022,"Ġstrange":13023,"ĠHerbert":13024,"Ġannoy":13025,"ĠMegan":13026,"ĠClair":13027,"Ġcareers":13028,"Ġdrink":13029,"Ġversus":13030,"Ġpossessed":13031,"Ġconfident":13032,"Ġconfluence":13033,"Ġthirds":13034,"Ġreflection":13035,"ĠMusical":13036,"ĠQi":13037,"Ġrequiring":13038,"ĠMcK":13039,"ĠManager":13040,"levard":13041,"ĠOrtona":13042,"Ġcontracted":13043,"Ġmidfield":13044,"Ġtownship":13045,"Ġarchipelago":13046,"Ġdelays":13047,"Ġvictorious":13048,"Ġprofound":13049,"Ġprojected":13050,"Ġobserve":13051,"Ġfarms":13052,"Ġfacts":13053,"Ġcharting":13054,"ĠMichaels":13055,"ambers":13056,"ĠBlackburn":13057,"ĠRegard":13058,"ĠRoyston":13059,"Ġconviction":13060,"Ġreadily":13061,"Ġsuffer":13062,"Ġsummit":13063,"ĠTowns":13064,"Ġpredict":13065,"Ġglac":13066,"Ġidentifies":13067,"Ġ1853":13068,"Ġ1858":13069,"commun":13070,"Ġswitch":13071,"Ġcreature":13072,"Ġ1885":13073,"ĠPlaying":13074,"ĠDuarte":13075,"Ġfortified":13076,"alties":13077,"ĠMostar":13078,"Ġrebel":13079,"umping":13080,"Ġthinks":13081,"ĠWilf":13082,"Ġmerged":13083,"ĠKhoo":13084,"Ġdiscussing":13085,"Ġdiscussions":13086,"Ġremoving":13087,"Ġdissolution":13088,"Ġliterally":13089,"ĠFilms":13090,"Ġcruise":13091,"Ġdropping":13092,"Ġ750":13093,"Ġensuing":13094,"ĠFinland":13095,"Ġcomplained":13096,"ĠCatholicism":13097,"Ġcelebration":13098,"ĠItalians":13099,"Ġinvestigated":13100,"Ġphotography":13101,"Ġsalmon":13102,"Ġgraphs":13103,"ĠDamage":13104,"Ġlifestyle":13105,"writer":13106,"ĠKrist":13107,"ĠReviewers":13108,"Ġdynam":13109,"ĠBolton":13110,"ĠControl":13111,"ĠAvtovac":13112,"Ġlegislature":13113,"Ġneutrino":13114,"Ġdeployment":13115,"Ġflee":13116,"Ġcomprises":13117,"Ġstrengthening":13118,"Ġpanels":13119,"ĠMorris":13120,"ĠAdditional":13121,"Ġstriker":13122,"ĠGiÃ£":13123,"Ġunusually":13124,"ĠMuslims":13125,"Ġcooler":13126,"Ġaccidentally":13127,"ĠSussex":13128,"Ġlawsuit":13129,"Ġeldest":13130,"Ġexercised":13131,"Ġmortar":13132,"Ġcommitment":13133,"ĠFelicia":13134,"Ġconducting":13135,"Ġbeside":13136,"Ġskeleton":13137,"Ġtraits":13138,"Ġnicknamed":13139,"ĠRosberg":13140,"Ġproceeds":13141,"Ġclouds":13142,"Ġmaintains":13143,"Ġconquered":13144,"Ġfloating":13145,"Ġacclaimed":13146,"ĠLaboratory":13147,"ĠMelbourne":13148,"Ġloyalty":13149,"ĠCulture":13150,"ĠBroncos":13151,"ĠJennifer":13152,"Ġorbital":13153,"ĠAPF":13154,"Ġresignation":13155,"Ġfrigate":13156,"Ġprolong":13157,"Ġerrors":13158,"Ġimprisoned":13159,"ĠExpressway":13160,"Ġnavigation":13161,"ĠParalympics":13162,"ĠNashville":13163,"ĠVeeru":13164,"Ġclusters":13165,"Ġumpire":13166,"ĠIndonesian":13167,"Ġneighborhoods":13168,"course":13169,"Ġsketch":13170,"Ġseventeen":13171,"Ġdodo":13172,"ĠNME":13173,"Ġveteran":13174,"ĠPhilippines":13175,"eveloped":13176,"ĠLoyalsock":13177,"Ġalgorith":13178,"ĠAssyrian":13179,"ĠRIAA":13180,"Ġabnormal":13181,"Ġdisliked":13182,"Ġincursion":13183,"ĠPokiri":13184,"Ġpoverty":13185,"ĠBoulder":13186,"ĠOjibwe":13187,"ĠVettel":13188,"Ġenvelope":13189,"Ġambitious":13190,"cade":13191,"dict":13192,"eus":13193,"fens":13194,"gence":13195,"ggy":13196,"hanna":13197,"lix":13198,"layer":13199,"mund":13200,"say":13201,"ua":13202,"zing":13203,"Ġtheolog":13204,"Ġtheories":13205,"render":13206,"Ġsinking":13207,"Ġcel":13208,"Ġcock":13209,"Ġfing":13210,"Ġbot":13211,"Ġbite":13212,"ingham":13213,"asant":13214,"Ġtoy":13215,"Ġmit":13216,"Ġmad":13217,"rov":13218,"Ġhate":13219,"Ġhier":13220,"Ġhunt":13221,"leted":13222,"ĠTun":13223,"ĠTob":13224,"Ġthorough":13225,"ĠAren":13226,"ĠSau":13227,"sters":13228,"Ġlion":13229,"Ġlighter":13230,"Ġease":13231,"elin":13232,"adir":13233,"ĠMI":13234,"ĠMend":13235,"Ġgif":13236,"oles":13237,"olly":13238,"olph":13239,"ĠBorough":13240,"ĠBoca":13241,"imol":13242,"ĠHang":13243,"ĠHutch":13244,"ĠHappy":13245,"usanag":13246,"otilla":13247,"ĠPD":13248,"ĠPear":13249,"ĠRound":13250,"ĠRuth":13251,"Ġalbe":13252,"ĠFur":13253,"ĠFisc":13254,"ĠFiction":13255,"ĠDh":13256,"employ":13257,"ĠWang":13258,"ĠWany":13259,"ĠWemb":13260,"ĠLakes":13261,"ĠLands":13262,"ĠLED":13263,"avor":13264,"avan":13265,"Ġseed":13266,"Ġsear":13267,"Ġri":13268,"Ġrises":13269,"Ġrandom":13270,"ĠOst":13271,"rifield":13272,"Ġproced":13273,"Ġvig":13274,"Ġvoyage":13275,"aki":13276,"akers":13277,"Ġexpense":13278,"about":13279,"ques":13280,"quet":13281,"Ġkids":13282,"ĠKet":13283,"ĠKod":13284,"ĠKusanag":13285,"Ġleaf":13286,"Ġtraces":13287,"iano":13288,"ĠChu":13289,"ĠChau":13290,"Ġunemploy":13291,"ĠVI":13292,"ĠVoice":13293,"orms":13294,"ĠHend":13295,"Ġrecapt":13296,"plain":13297,"Ġdisch":13298,"Ġdisorder":13299,"Ġjumps":13300,"Ġjealous":13301,"angered":13302,"Ġspor":13303,"Ġspite":13304,"Ġspelled":13305,"Ġenable":13306,"izers":13307,"ĠYoko":13308,"Ġallies":13309,"ensional":13310,"Ġbeta":13311,"Ġbetray":13312,"Ġrelocated":13313,"Ġcolored":13314,"Ġverb":13315,"Ġpeer":13316,"Ġformations":13317,"Ġaccord":13318,"Ġsubstances":13319,"Ġactively":13320,"Ġhighlights":13321,"ĠBrigadier":13322,"Ġmonk":13323,"Ġ173":13324,"ĠIndians":13325,"Ġinstances":13326,"ĠAustin":13327,"ĠGerald":13328,"Ġinfl":13329,"Ġinflicted":13330,"Ġprovisions":13331,"ĠFranz":13332,"Ġmetals":13333,"Ġmetaph":13334,"Ġ131":13335,"Ġvariant":13336,"ĠTrad":13337,"Ġtyphoon":13338,"Ġtopological":13339,"Ġtracking":13340,"nery":13341,"plex":13342,"Ġbreast":13343,"Ġcaptivity":13344,"ussion":13345,"ĠPeggy":13346,"quehanna":13347,"Ġeastward":13348,"Ġcompetitor":13349,"ĠPerth":13350,"Ġframes":13351,"Ġforever":13352,"Ġtroubles":13353,"Ġaffection":13354,"Ġpatients":13355,"Ġequally":13356,"ĠAirlines":13357,"Ġtraditionally":13358,"ĠOliver":13359,"ĠHamar":13360,"Ġcellular":13361,"ĠExpl":13362,"Äģh":13363,"Ġswing":13364,"Ġseparation":13365,"Ġquarters":13366,"Ġwidth":13367,"Ġcollision":13368,"Ġreasoning":13369,"ĠOlivia":13370,"ĠOdys":13371,"ĠGalile":13372,"Ġneglected":13373,"Ġcivilization":13374,"Ġthreatening":13375,"Ġclearing":13376,"Ġ1838":13377,"ĠDrive":13378,"Ġphysically":13379,"Ġeducated":13380,"Ġ1847":13381,"Ġgraduating":13382,"Ġparticipating":13383,"Ġvisitor":13384,"irtz":13385,"ĠOffensive":13386,"Ġconcludes":13387,"Ġembry":13388,"Ġcolonists":13389,"Ġ330":13390,"ĠMerrifield":13391,"Ġshoots":13392,"Ġsuspic":13393,"Ġthickness":13394,"Ġacquis":13395,"Ġacquire":13396,"Ġnuclei":13397,"Ġdigit":13398,"ĠArchitect":13399,"Ġparks":13400,"ĠSurrender":13401,"ĠColonna":13402,"Ġironcl":13403,"Ġmultiplayer":13404,"Ġmanufactured":13405,"Ġharbor":13406,"ĠFourth":13407,"Ġpreparations":13408,"Ġraids":13409,"ĠKentucky":13410,"Ġbelongs":13411,"jection":13412,"jections":13413,"ĠWritten":13414,"ĠChapman":13415,"Ġremixed":13416,"Ġoxid":13417,"swick":13418,"Ġtactic":13419,"Ġtactical":13420,"ĠRevolutionary":13421,"Ġrows":13422,"Ġecosy":13423,"Ġunpop":13424,"Ġprotagonists":13425,"Ġeasier":13426,"ĠKnights":13427,"Ġmistake":13428,"Ġsnake":13429,"ĠSusquehanna":13430,"Ġundertook":13431,"Ġsailing":13432,"Ġpolyg":13433,"Ġhairst":13434,"Ġevacuation":13435,"Ġevacuate":13436,"Ġsubstantially":13437,"ĠWinds":13438,"ĠVolunte":13439,"ĠWarsaw":13440,"Ġprosper":13441,"ĠMotor":13442,"ĠHungary":13443,"Ġcoordinated":13444,"Ġwarships":13445,"hmirtz":13446,"ĠKaram":13447,"Ġdimensional":13448,"Ġjackrabbits":13449,"Ġremembered":13450,"Ġadmits":13451,"Ġimprisonment":13452,"osomes":13453,"Ġelderly":13454,"ĠPleasure":13455,"Ġcarriages":13456,"ÅĤaw":13457,"Ġwelcome":13458,"ĠDiego":13459,"Ġswimming":13460,"Ġbarracks":13461,"ĠAlbion":13462,"ĠYellowstone":13463,"Ġfacilit":13464,"Ġdisappointed":13465,"ĠMunich":13466,"ĠFemale":13467,"Ġsympathetic":13468,"Ġprosecution":13469,"Ġanticipated":13470,"ĠDrama":13471,"ĠMortimer":13472,"ĠDoofens":13473,"Ġspawned":13474,"Ġluminosity":13475,"Ġstanza":13476,"Ġamphibious":13477,"ĠDestroyer":13478,"Ġpseud":13479,"ĠBrunswick":13480,"Ġchancel":13481,"ĠChopin":13482,"Ġtelephone":13483,"ĠBrothers":13484,"ĠSymphony":13485,"ĠHomar":13486,"Ġbronze":13487,"ĠTucker":13488,"Ġalcohol":13489,"ĠFerrari":13490,"Ġextraordinary":13491,"ĠLithuanian":13492,"ĠNFL":13493,"Ġmaneu":13494,"ĠMuhammad":13495,"Ġalbeit":13496,"ĠFischer":13497,"ĠWanyan":13498,"ĠWembley":13499,"ĠKusanagi":13500,"ĠChauvel":13501,"Ġecosystem":13502,"ĠDoofenshmirtz":13503,"Sh":13504,"Sp":13505,"aos":13506,"bard":13507,"cont":13508,"cairn":13509,"dam":13510,"dman":13511,"eb":13512,"eh":13513,"fam":13514,"gow":13515,"gna":13516,"hous":13517,"numbered":13518,"points":13519,"tures":13520,"erod":13521,"onald":13522,"onelli":13523,"rect":13524,"rels":13525,"Ġsank":13526,"Ġol":13527,"Ġoak":13528,"iture":13529,"Ġbishops":13530,"Ġinhib":13531,"Ġinex":13532,"aric":13533,"Ġpm":13534,"Ġpock":13535,"asury":13536,"asgow":13537,"Ġmating":13538,"Ġmasters":13539,"roc":13540,"rosoft":13541,"ici":13542,"ĠTed":13543,"Ġreh":13544,"Ġreorgan":13545,"entin":13546,"oub":13547,"ĠAval":13548,"ĠSit":13549,"ĠSic":13550,"ĠSag":13551,"ĠScl":13552,"ĠSomet":13553,"ĠSchol":13554,"ĠSovereign":13555,"Ġey":13556,"Ġeaten":13557,"Ġnons":13558,"ami":13559,"ĠClear":13560,"ĠCandid":13561,"ĠClement":13562,"ĠCatherine":13563,"ĠCAT":13564,"elih":13565,"acon":13566,"acrit":13567,"ĠMas":13568,"ĠMits":13569,"ĠMales":13570,"ĠMunicip":13571,"ĠMCC":13572,"ĠMoment":13573,"ĠIb":13574,"ĠIber":13575,"Ġgam":13576,"Ġgay":13577,"Ġgills":13578,"olving":13579,"olulu":13580,"tery":13581,"imination":13582,"ctic":13583,"iths":13584,"ĠHold":13585,"ĠHars":13586,"ĠHadd":13587,"heric":13588,"utors":13589,"ĠPil":13590,"ĠPra":13591,"ĠPric":13592,"ĠProp":13593,"ĠRaton":13594,"Ġconif":13595,"Ġconception":13596,"ĠWonder":13597,"andhi":13598,"ĠNature":13599,"ĠNumber":13600,"ĠGri":13601,"ĠGree":13602,"ĠGandhi":13603,"ĠLem":13604,"ĠLabyrinth":13605,"avis":13606,"ĠJai":13607,"Ġrice":13608,"ĠOri":13609,"apy":13610,"ante":13611,"anti":13612,"quis":13613,"quir":13614,"ĠâĢĺ":13615,"Ġye":13616,"ĠKend":13617,"Ġleather":13618,"ova":13619,"ĠStay":13620,"geant":13621,"osts":13622,"ellor":13623,"ĠChamber":13624,"Ġcompiled":13625,"Ġarcher":13626,"ogle":13627,"ĠVH":13628,"ĠViaduct":13629,"Ġrecruit":13630,"ĠThames":13631,"areth":13632,"Ġscales":13633,"Ġteaches":13634,"Ġupgr":13635,"Ġencom":13636,"acea":13637,"ensa":13638,"ĠRecon":13639,"ĠSeas":13640,"Ġfever":13641,"ĠArama":13642,"ugg":13643,"Ġcoloured":13644,"Ġfilmm":13645,"Ġendemic":13646,"Ġpecki":13647,"Ġregained":13648,"Ġassign":13649,"Ġassured":13650,"Ġspecially":13651,"ĠNewark":13652,"ĠNewcastle":13653,"ĠAmericas":13654,"Ġquake":13655,"obonelli":13656,"Ġgraves":13657,"Ġepit":13658,"Ġsynd":13659,"otherapy":13660,"Ġblame":13661,"annadh":13662,"Ġempty":13663,"Ġ171":13664,"Ġsignature":13665,"Ġterrible":13666,"Ġdiscour":13667,"ĠZhang":13668,"ĠZrÃŃ":13669,"Ġinfilt":13670,"Ġwarrant":13671,"ĠConnie":13672,"Ġinscribed":13673,"uclear":13674,"ucalypt":13675,"Ġnorthwestern":13676,"ĠPlensa":13677,"Ġ135":13678,"Ġguy":13679,"ĠColony":13680,"Ġsouthwestern":13681,"Ġmarble":13682,"Ġpossessions":13683,"ĠAndr":13684,"elta":13685,"Ġviewing":13686,"Ġissuing":13687,"ĠPradesh":13688,"Ġtrademark":13689,"Ġmyel":13690,"Ġcrimes":13691,"Ġbasement":13692,"Ġlowered":13693,"ĠPeriod":13694,"Ġ260":13695,"Ġstatute":13696,"Ġsolve":13697,"ĠAssist":13698,"Ġintroduce":13699,"Ġtourism":13700,"Ġprototype":13701,"Ġvillagers":13702,"ĠGlasgow":13703,"Ġsteambo":13704,"Ġsurvives":13705,"Ġrocky":13706,"Ġpredator":13707,"Ġfrontier":13708,"Ġassociations":13709,"ĠSupport":13710,"grim":13711,"Ġaveraging":13712,"Ġsuperst":13713,"Ġ1883":13714,"Ġhymn":13715,"ĠGameSp":13716,"Ġwidow":13717,"stituted":13718,"ĠCommando":13719,"ĠMedway":13720,"Ġfortifications":13721,"Ġpractical":13722,"Ġ1876":13723,"ĠCapcom":13724,"Ġviolacea":13725,"Ġhonest":13726,"araoh":13727,"ĠBrowns":13728,"Ġzero":13729,"Ġloose":13730,"Ġdiscusses":13731,"Ġ1837":13732,"ĠNotting":13733,"Ġdissent":13734,"Ġoccupies":13735,"ĠPrepar":13736,"Ġcruzi":13737,"enesis":13738,"Ġcalm":13739,"ĠAppro":13740,"Ġensued":13741,"ĠMetacrit":13742,"Ġaccessible":13743,"Ġcelebrity":13744,"Ġsilk":13745,"Ġsilent":13746,"Ġanalyzed":13747,"inental":13748,"Ġopted":13749,"ĠPittsburgh":13750,"ĠPitcairn":13751,"Ġjudged":13752,"Ġparking":13753,"limited":13754,"Ġincorrect":13755,"Ġinternet":13756,"ĠLiSA":13757,"Ġdrummer":13758,"ĠWildlife":13759,"Ġgrandson":13760,"Ġchemotherapy":13761,"ĠJosce":13762,"ĠSchm":13763,"ĠFantuzz":13764,"Ġwildlife":13765,"Ġprisoner":13766,"Ġmuseums":13767,"ĠChapter":13768,"ĠTrip":13769,"ĠTrials":13770,"Ġcollecting":13771,"Ġturret":13772,"Ġdressing":13773,"ĠPozz":13774,"ĠLarge":13775,"Ġdefinitely":13776,"Ġcomparable":13777,"ĠJeffrey":13778,"ĠCrowns":13779,"ĠMicrosoft":13780,"ĠEssex":13781,"ĠSusan":13782,"Ġoverlap":13783,"Ġdecreased":13784,"Ġbowlers":13785,"Ġfluid":13786,"ĠBroadcast":13787,"Ġdisturbed":13788,"ĠLowland":13789,"Ġrubble":13790,"ĠHuguen":13791,"Ġpalace":13792,"Ġpredecessors":13793,"Ġexpectations":13794,"Ġkingship":13795,"Ġconsequences":13796,"Ġvolunteer":13797,"ĠMarcus":13798,"ĠFeldman":13799,"Ġoutfit":13800,"ĠSavannah":13801,"Ġconquest":13802,"Ġsongwriting":13803,"ĠCooksey":13804,"ĠHunter":13805,"ĠStoppani":13806,"Ġreprinted":13807,"ĠYugoslav":13808,"Ġgardens":13809,"Ġsediment":13810,"Ġprolific":13811,"Ġdelegates":13812,"Ġpoisoning":13813,"Ġtackle":13814,"Ġcomedian":13815,"Ġinnovative":13816,"Ġcongregation":13817,"Ġnursery":13818,"ĠPowers":13819,"Ġparasites":13820,"ĠPublishing":13821,"Ġfossil":13822,"ĠNonetheless":13823,"Ġadaptations":13824,"Ġexplicitly":13825,"ĠPierre":13826,"Ġaerodromes":13827,"ĠLiterary":13828,"Ġrevenge":13829,"rhiz":13830,"ĠFriedrich":13831,"ĠJagannadh":13832,"Ġadequate":13833,"Ġentertaining":13834,"Ġdiscontinued":13835,"Ġgrammar":13836,"ĠAdriatic":13837,"Ġcontemporaries":13838,"ĠConstantinople":13839,"corrhiz":13840,"Ġreassigned":13841,"ĠCrystal":13842,"Ġstroke":13843,"ĠFletcher":13844,"Ġinconsist":13845,"Shara":13846,"ĠSaginaw":13847,"ĠSclerod":13848,"ĠSometimes":13849,"elihood":13850,"ĠMitsuda":13851,"ĠHarsha":13852,"ĠPrice":13853,"ĠGreece":13854,"Ġencompass":13855,"ĠAramaic":13856,"Ġpeckii":13857,"ĠZrÃŃnyi":13858,"ĠMetacritic":13859,"ĠFantuzzi":13860,"ĠPozzobonelli":13861,"LC":13862,"MC":13863,
[...]
